{
  "<pad>": 0,
  "<bos>": 1,
  "<eos>": 2,
  "<unk>": 3,
  "<0x00>": 4,
  "<0x01>": 5,
  "<0x02>": 6,
  "<0x03>": 7,
  "<0x04>": 8,
  "<0x05>": 9,
  "<0x06>": 10,
  "<0x07>": 11,
  "<0x08>": 12,
  "<0x09>": 13,
  "<0x0A>": 14,
  "<0x0B>": 15,
  "<0x0C>": 16,
  "<0x0D>": 17,
  "<0x0E>": 18,
  "<0x0F>": 19,
  "<0x10>": 20,
  "<0x11>": 21,
  "<0x12>": 22,
  "<0x13>": 23,
  "<0x14>": 24,
  "<0x15>": 25,
  "<0x16>": 26,
  "<0x17>": 27,
  "<0x18>": 28,
  "<0x19>": 29,
  "<0x1A>": 30,
  "<0x1B>": 31,
  "<0x1C>": 32,
  "<0x1D>": 33,
  "<0x1E>": 34,
  "<0x1F>": 35,
  "<0x20>": 36,
  "<0x21>": 37,
  "<0x22>": 38,
  "<0x23>": 39,
  "<0x24>": 40,
  "<0x25>": 41,
  "<0x26>": 42,
  "<0x27>": 43,
  "<0x28>": 44,
  "<0x29>": 45,
  "<0x2A>": 46,
  "<0x2B>": 47,
  "<0x2C>": 48,
  "<0x2D>": 49,
  "<0x2E>": 50,
  "<0x2F>": 51,
  "<0x30>": 52,
  "<0x31>": 53,
  "<0x32>": 54,
  "<0x33>": 55,
  "<0x34>": 56,
  "<0x35>": 57,
  "<0x36>": 58,
  "<0x37>": 59,
  "<0x38>": 60,
  "<0x39>": 61,
  "<0x3A>": 62,
  "<0x3B>": 63,
  "<0x3C>": 64,
  "<0x3D>": 65,
  "<0x3E>": 66,
  "<0x3F>": 67,
  "<0x40>": 68,
  "<0x41>": 69,
  "<0x42>": 70,
  "<0x43>": 71,
  "<0x44>": 72,
  "<0x45>": 73,
  "<0x46>": 74,
  "<0x47>": 75,
  "<0x48>": 76,
  "<0x49>": 77,
  "<0x4A>": 78,
  "<0x4B>": 79,
  "<0x4C>": 80,
  "<0x4D>": 81,
  "<0x4E>": 82,
  "<0x4F>": 83,
  "<0x50>": 84,
  "<0x51>": 85,
  "<0x52>": 86,
  "<0x53>": 87,
  "<0x54>": 88,
  "<0x55>": 89,
  "<0x56>": 90,
  "<0x57>": 91,
  "<0x58>": 92,
  "<0x59>": 93,
  "<0x5A>": 94,
  "<0x5B>": 95,
  "<0x5C>": 96,
  "<0x5D>": 97,
  "<0x5E>": 98,
  "<0x5F>": 99,
  "<0x60>": 100,
  "<0x61>": 101,
  "<0x62>": 102,
  "<0x63>": 103,
  "<0x64>": 104,
  "<0x65>": 105,
  "<0x66>": 106,
  "<0x67>": 107,
  "<0x68>": 108,
  "<0x69>": 109,
  "<0x6A>": 110,
  "<0x6B>": 111,
  "<0x6C>": 112,
  "<0x6D>": 113,
  "<0x6E>": 114,
  "<0x6F>": 115,
  "<0x70>": 116,
  "<0x71>": 117,
  "<0x72>": 118,
  "<0x73>": 119,
  "<0x74>": 120,
  "<0x75>": 121,
  "<0x76>": 122,
  "<0x77>": 123,
  "<0x78>": 124,
  "<0x79>": 125,
  "<0x7A>": 126,
  "<0x7B>": 127,
  "<0x7C>": 128,
  "<0x7D>": 129,
  "<0x7E>": 130,
  "<0x7F>": 131,
  "<0x80>": 132,
  "<0x81>": 133,
  "<0x82>": 134,
  "<0x83>": 135,
  "<0x84>": 136,
  "<0x85>": 137,
  "<0x86>": 138,
  "<0x87>": 139,
  "<0x88>": 140,
  "<0x89>": 141,
  "<0x8A>": 142,
  "<0x8B>": 143,
  "<0x8C>": 144,
  "<0x8D>": 145,
  "<0x8E>": 146,
  "<0x8F>": 147,
  "<0x90>": 148,
  "<0x91>": 149,
  "<0x92>": 150,
  "<0x93>": 151,
  "<0x94>": 152,
  "<0x95>": 153,
  "<0x96>": 154,
  "<0x97>": 155,
  "<0x98>": 156,
  "<0x99>": 157,
  "<0x9A>": 158,
  "<0x9B>": 159,
  "<0x9C>": 160,
  "<0x9D>": 161,
  "<0x9E>": 162,
  "<0x9F>": 163,
  "<0xA0>": 164,
  "<0xA1>": 165,
  "<0xA2>": 166,
  "<0xA3>": 167,
  "<0xA4>": 168,
  "<0xA5>": 169,
  "<0xA6>": 170,
  "<0xA7>": 171,
  "<0xA8>": 172,
  "<0xA9>": 173,
  "<0xAA>": 174,
  "<0xAB>": 175,
  "<0xAC>": 176,
  "<0xAD>": 177,
  "<0xAE>": 178,
  "<0xAF>": 179,
  "<0xB0>": 180,
  "<0xB1>": 181,
  "<0xB2>": 182,
  "<0xB3>": 183,
  "<0xB4>": 184,
  "<0xB5>": 185,
  "<0xB6>": 186,
  "<0xB7>": 187,
  "<0xB8>": 188,
  "<0xB9>": 189,
  "<0xBA>": 190,
  "<0xBB>": 191,
  "<0xBC>": 192,
  "<0xBD>": 193,
  "<0xBE>": 194,
  "<0xBF>": 195,
  "<0xC0>": 196,
  "<0xC1>": 197,
  "<0xC2>": 198,
  "<0xC3>": 199,
  "<0xC4>": 200,
  "<0xC5>": 201,
  "<0xC6>": 202,
  "<0xC7>": 203,
  "<0xC8>": 204,
  "<0xC9>": 205,
  "<0xCA>": 206,
  "<0xCB>": 207,
  "<0xCC>": 208,
  "<0xCD>": 209,
  "<0xCE>": 210,
  "<0xCF>": 211,
  "<0xD0>": 212,
  "<0xD1>": 213,
  "<0xD2>": 214,
  "<0xD3>": 215,
  "<0xD4>": 216,
  "<0xD5>": 217,
  "<0xD6>": 218,
  "<0xD7>": 219,
  "<0xD8>": 220,
  "<0xD9>": 221,
  "<0xDA>": 222,
  "<0xDB>": 223,
  "<0xDC>": 224,
  "<0xDD>": 225,
  "<0xDE>": 226,
  "<0xDF>": 227,
  "<0xE0>": 228,
  "<0xE1>": 229,
  "<0xE2>": 230,
  "<0xE3>": 231,
  "<0xE4>": 232,
  "<0xE5>": 233,
  "<0xE6>": 234,
  "<0xE7>": 235,
  "<0xE8>": 236,
  "<0xE9>": 237,
  "<0xEA>": 238,
  "<0xEB>": 239,
  "<0xEC>": 240,
  "<0xED>": 241,
  "<0xEE>": 242,
  "<0xEF>": 243,
  "<0xF0>": 244,
  "<0xF1>": 245,
  "<0xF2>": 246,
  "<0xF3>": 247,
  "<0xF4>": 248,
  "<0xF5>": 249,
  "<0xF6>": 250,
  "<0xF7>": 251,
  "<0xF8>": 252,
  "<0xF9>": 253,
  "<0xFA>": 254,
  "<0xFB>": 255,
  "<0xFC>": 256,
  "<0xFD>": 257,
  "<0xFE>": 258,
  "<0xFF>": 259,
  "те": 260,
  "ль": 261,
  "ис": 262,
  "ов": 263,
  "нт": 264,
  "▁П": 265,
  "▁По": 266,
  "▁А": 267,
  "ова": 268,
  "сис": 269,
  "систе": 270,
  "систент": 271,
  "льз": 272,
  "тель": 273,
  "ссистент": 274,
  "льзова": 275,
  "льзователь": 276,
  "▁Пользователь": 277,
  "▁Ассистент": 278,
  "▁t": 279,
  "▁п": 280,
  "▁a": 281,
  "▁i": 282,
  "er": 283,
  "on": 284,
  "▁c": 285,
  "▁1": 286,
  "▁th": 287,
  "re": 288,
  "ст": 289,
  "ра": 290,
  "▁s": 291,
  "an": 292,
  "at": 293,
  "▁=": 294,
  "ро": 295,
  "но": 296,
  "▁в": 297,
  "▁с": 298,
  "▁о": 299,
  "▁I": 300,
  "in": 301,
  "ou": 302,
  "is": 303,
  "le": 304,
  "▁2": 305,
  "▁w": 306,
  "``": 307,
  "ет": 308,
  "▁по": 309,
  "▁к": 310,
  "▁n": 311,
  "▁н": 312,
  "ен": 313,
  "то": 314,
  "▁the": 315,
  "or": 316,
  "▁f": 317,
  "th": 318,
  "ер": 319,
  "▁d": 320,
  "мо": 321,
  "▁h": 322,
  "▁д": 323,
  "en": 324,
  "за": 325,
  "es": 326,
  "el": 327,
  "▁3": 328,
  "▁re": 329,
  "ли": 330,
  "▁A": 331,
  "▁an": 332,
  "▁m": 333,
  "ion": 334,
  "▁ч": 335,
  "▁p": 336,
  "▁it": 337,
  "se": 338,
  "al": 339,
  "▁in": 340,
  "ач": 341,
  "▁на": 342,
  "▁is": 343,
  "yth": 344,
  "um": 345,
  "ython": 346,
  "ist": 347,
  "ow": 348,
  "▁В": 349,
  "te": 350,
  "ло": 351,
  "▁y": 352,
  "▁-": 353,
  "▁S": 354,
  "ть": 355,
  "▁b": 356,
  "▁4": 357,
  "ня": 358,
  "▁и": 359,
  "```": 360,
  "▁```": 361,
  "ри": 362,
  "ing": 363,
  "▁you": 364,
  "ла": 365,
  "ct": 366,
  "▁H": 367,
  "▁Р": 368,
  "ши": 369,
  "▁to": 370,
  "ere": 371,
  "mp": 372,
  "▁К": 373,
  "та": 374,
  "ки": 375,
  "ко": 376,
  "ся": 377,
  "▁за": 378,
  "ни": 379,
  "▁м": 380,
  "▁ко": 381,
  "ем": 382,
  "▁+": 383,
  "▁О": 384,
  "▁P": 385,
  "▁про": 386,
  "ers": 387,
  "ur": 388,
  "не": 389,
  "▁от": 390,
  "ro": 391,
  "▁e": 392,
  "ор": 393,
  "ка": 394,
  "вет": 395,
  "ke": 396,
  "▁р": 397,
  "▁у": 398,
  "▁and": 399,
  "ени": 400,
  "го": 401,
  "ol": 402,
  "▁x": 403,
  "ar": 404,
  "▁U": 405,
  "▁б": 406,
  "ста": 407,
  "рав": 408,
  "ed": 409,
  "▁can": 410,
  "▁T": 411,
  "▁l": 412,
  "да": 413,
  "qu": 414,
  "▁Python": 415,
  "ss": 416,
  "ant": 417,
  "ri": 418,
  "ve": 419,
  "ере": 420,
  "▁'": 421,
  "▁об": 422,
  "▁num": 423,
  "еш": 424,
  "▁g": 425,
  "▁э": 426,
  "ту": 427,
  "▁o": 428,
  "',": 429,
  "▁Д": 430,
  "ід": 431,
  "от": 432,
  "ля": 433,
  "hat": 434,
  "ll": 435,
  "ssist": 436,
  "ци": 437,
  "urn": 438,
  "▁hel": 439,
  "ra": 440,
  "де": 441,
  "ти": 442,
  "▁help": 443,
  "▁С": 444,
  "▁5": 445,
  "▁de": 446,
  "▁cou": 447,
  "sw": 448,
  "mple": 449,
  "ны": 450,
  "ение": 451,
  "ation": 452,
  "▁ret": 453,
  "▁return": 454,
  "▁this": 455,
  "ic": 456,
  "swer": 457,
  "ssistant": 458,
  "▁это": 459,
  "ру": 460,
  "▁помо": 461,
  "▁ра": 462,
  "▁Н": 463,
  "▁те": 464,
  "▁Us": 465,
  "nt": 466,
  "▁6": 467,
  "пи": 468,
  "си": 469,
  "ак": 470,
  "▁qu": 471,
  "▁ф": 472,
  "▁Here": 473,
  "▁Th": 474,
  "▁of": 475,
  "▁for": 476,
  "▁O": 477,
  "лу": 478,
  "gh": 479,
  "ма": 480,
  "▁me": 481,
  "▁я": 482,
  "▁User": 483,
  "▁Assistant": 484,
  "ів": 485,
  "▁that": 486,
  "исту": 487,
  "вач": 488,
  "истувач": 489,
  "oo": 490,
  "зу": 491,
  "▁Кор": 492,
  "▁Асистент": 493,
  "▁Користувач": 494,
  "▁8": 495,
  "it": 496,
  "▁9": 497,
  "▁мо": 498,
  "ut": 499,
  "ake": 500,
  "▁do": 501,
  "сь": 502,
  "ay": 503,
  "▁10": 504,
  "ad": 505,
  "во": 506,
  "▁(": 507,
  "▁7": 508,
  "▁ответ": 509,
  "ди": 510,
  "ун": 511,
  "▁пр": 512,
  "▁numb": 513,
  "▁*": 514,
  "ва": 515,
  "▁что": 516,
  "▁st": 517,
  "▁wor": 518,
  "унк": 519,
  "▁si": 520,
  "ks": 521,
  "ме": 522,
  "ent": 523,
  "жи": 524,
  "дач": 525,
  "▁сп": 526,
  "чно": 527,
  "яс": 528,
  "st": 529,
  "на": 530,
  "▁пере": 531,
  "▁wi": 532,
  "▁pro": 533,
  "▁з": 534,
  "▁ex": 535,
  "▁if": 536,
  "pp": 537,
  "лем": 538,
  "▁при": 539,
  "▁cle": 540,
  "ку": 541,
  "▁co": 542,
  "бо": 543,
  "▁->": 544,
  "▁def": 545,
  "▁se": 546,
  "▁ре": 547,
  "▁v": 548,
  "▁12": 549,
  "▁ne": 550,
  "▁/": 551,
  "ght": 552,
  "ці": 553,
  "ей": 554,
  "▁[": 555,
  "сть": 556,
  "▁У": 557,
  "▁Я": 558,
  "че": 559,
  "чи": 560,
  "ется": 561,
  "python": 562,
  "ез": 563,
  "▁int": 564,
  "▁W": 565,
  "▁От": 566,
  "▁объ": 567,
  "me": 568,
  "▁ш": 569,
  "ma": 570,
  "▁На": 571,
  "пиши": 572,
  "end": 573,
  "xt": 574,
  "▁объяс": 575,
  "про": 576,
  "▁Вот": 577,
  "▁т": 578,
  "▁Ра": 579,
  "▁ну": 580,
  "▁what": 581,
  "▁для": 582,
  "▁with": 583,
  "▁R": 584,
  "▁во": 585,
  "ul": 586,
  "▁та": 587,
  "▁нуж": 588,
  "прос": 589,
  "▁З": 590,
  "▁G": 591,
  "▁di": 592,
  "olut": 593,
  "▁res": 594,
  "ный": 595,
  "ly": 596,
  "чис": 597,
  "ми": 598,
  "▁need": 599,
  "кий": 600,
  "▁прост": 601,
  "жа": 602,
  "зв": 603,
  "▁чис": 604,
  "ac": 605,
  "хо": 606,
  "▁11": 607,
  "▁are": 608,
  "ate": 609,
  "дела": 610,
  "▁помог": 611,
  "tep": 612,
  "de": 613,
  "кст": 614,
  "▁ча": 615,
  "rite": 616,
  "▁текст": 617,
  "est": 618,
  "▁on": 619,
  "по": 620,
  "ння": 621,
  "as": 622,
  "ft": 623,
  "▁Реш": 624,
  "▁функ": 625,
  "▁answer": 626,
  "un": 627,
  "▁Да": 628,
  "▁Ко": 629,
  "▁Su": 630,
  "▁list": 631,
  "▁За": 632,
  "▁Б": 633,
  "ble": 634,
  "▁te": 635,
  "▁не": 636,
  "▁2.": 637,
  "ешь": 638,
  "▁con": 639,
  "до": 640,
  "▁le": 641,
  "▁An": 642,
  "▁C": 643,
  "нечно": 644,
  "▁fi": 645,
  "▁Напиши": 646,
  "▁text": 647,
  "▁Y": 648,
  "ight": 649,
  "▁проб": 650,
  "ча": 651,
  "00": 652,
  "▁реа": 653,
  "льно": 654,
  "▁оста": 655,
  "ед": 656,
  "ave": 657,
  "▁Конечно": 658,
  "▁Ответ": 659,
  "▁до": 660,
  "ely": 661,
  "lo": 662,
  "ot": 663,
  "▁коро": 664,
  "му": 665,
  "▁вс": 666,
  "ase": 667,
  "▁Ч": 668,
  "сти": 669,
  "▁now": 670,
  "▁ch": 671,
  "▁cour": 672,
  "▁course": 673,
  "▁1)": 674,
  "▁D": 675,
  "ари": 676,
  "лю": 677,
  "▁сл": 678,
  "▁раз": 679,
  "estion": 680,
  "▁question": 681,
  "▁корот": 682,
  "▁1.": 683,
  "rect": 684,
  "▁Answer": 685,
  "▁numbers": 686,
  "▁вы": 687,
  "ran": 688,
  "bs": 689,
  "▁count": 690,
  "▁How": 691,
  "▁Of": 692,
  "ood": 693,
  "▁вот": 694,
  "▁проблем": 695,
  "bsolut": 696,
  "bsolutely": 697,
  "▁3.": 698,
  "ре": 699,
  "▁bo": 700,
  "▁clear": 701,
  "▁М": 702,
  "лі": 703,
  "et": 704,
  "ds": 705,
  "▁Від": 706,
  "ну": 707,
  "▁0": 708,
  "▁мен": 709,
  "ract": 710,
  "▁как": 711,
  "pl": 712,
  "кти": 713,
  "▁ст": 714,
  "▁F": 715,
  "▁ма": 716,
  "▁И": 717,
  "▁мож": 718,
  "▁—": 719,
  "▁Решение": 720,
  "▁fun": 721,
  "lease": 722,
  "tal": 723,
  "іль": 724,
  "делай": 725,
  "▁total": 726,
  "▁simple": 727,
  "▁вопрос": 728,
  "тно": 729,
  "int": 730,
  "меется": 731,
  "▁задач": 732,
  "▁Right": 733,
  "▁Sure": 734,
  "▁Разу": 735,
  "▁Absolutely": 736,
  "▁Разумеется": 737,
  "▁бу": 738,
  "▁how": 739,
  "ment": 740,
  "▁ка": 741,
  "▁поня": 742,
  "луй": 743,
  "жалуй": 744,
  "жалуйста": 745,
  "▁2)": 746,
  "сс": 747,
  "нач": 748,
  "▁The": 749,
  "ант": 750,
  "▁str": 751,
  "га": 752,
  "ариант": 753,
  "▁15": 754,
  "ce": 755,
  "рат": 756,
  "ция": 757,
  "овер": 758,
  "ive": 759,
  "▁Х": 760,
  "ind": 761,
  "▁меня": 762,
  "▁expl": 763,
  "▁B": 764,
  "▁да": 765,
  "▁части": 766,
  "▁зали": 767,
  "▁ты": 768,
  "ge": 769,
  "▁wh": 770,
  "max": 771,
  "уй": 772,
  "▁е": 773,
  "▁Без": 774,
  "▁Yes": 775,
  "▁u": 776,
  "нение": 777,
  "▁13": 778,
  "ep": 779,
  "▁перев": 780,
  "ise": 781,
  "▁Хо": 782,
  "гу": 783,
  "▁прав": 784,
  "▁ша": 785,
  "ction": 786,
  "▁am": 787,
  "ult": 788,
  "▁by": 789,
  "ain": 790,
  "QL": 791,
  "▁SQL": 792,
  "iv": 793,
  "▁14": 794,
  "▁нужен": 795,
  "лько": 796,
  "▁г": 797,
  "чу": 798,
  "▁слова": 799,
  "rent": 800,
  "▁18": 801,
  "▁де": 802,
  "▁бы": 803,
  "▁то": 804,
  "ine": 805,
  "rom": 806,
  "лен": 807,
  "-1": 808,
  "▁function": 809,
  "прав": 810,
  "пов": 811,
  "▁N": 812,
  "▁ис": 813,
  "▁просты": 814,
  "▁from": 815,
  "▁M": 816,
  "чь": 817,
  "▁но": 818,
  "▁left": 819,
  "▁E": 820,
  "ать": 821,
  "▁дру": 822,
  "▁помочь": 823,
  "▁16": 824,
  "▁sh": 825,
  "▁ke": 826,
  "▁крат": 827,
  "ні": 828,
  "ical": 829,
  "польз": 830,
  "app": 831,
  "▁пра": 832,
  "мой": 833,
  "повід": 834,
  "OU": 835,
  "лось": 836,
  "▁number": 837,
  "il": 838,
  "ample": 839,
  "▁keep": 840,
  "▁кратко": 841,
  "▁объясни": 842,
  "▁короткий": 843,
  "повідь": 844,
  "anks": 845,
  "▁Відповідь": 846,
  "ую": 847,
  "▁20": 848,
  "▁Ис": 849,
  "▁а": 850,
  "▁equ": 851,
  "▁sum": 852,
  "▁Использ": 853,
  "бота": 854,
  "▁What": 855,
  "▁пря": 856,
  "▁have": 857,
  "▁19": 858,
  "ell": 859,
  "▁result": 860,
  "ємо": 861,
  "▁seq": 862,
  "])": 863,
  "ле": 864,
  "▁direct": 865,
  "urrent": 866,
  "▁current": 867,
  "ick": 868,
  "▁pract": 869,
  ").": 870,
  "▁практи": 871,
  "num": 872,
  "▁прямой": 873,
  "▁quick": 874,
  "ви": 875,
  "▁Ось": 876,
  "▁make": 877,
  "rans": 878,
  "▁від": 879,
  "▁trans": 880,
  "ція": 881,
  "ходи": 882,
  "арианты": 883,
  "▁17": 884,
  "▁под": 885,
  "дача": 886,
  "▁Задача": 887,
  "▁Варианты": 888,
  "']": 889,
  "▁['": 890,
  "▁реали": 891,
  "▁imple": 892,
  "ry": 893,
  "▁implement": 894,
  "▁Об": 895,
  "ство": 896,
  "-1]": 897,
  "▁спа": 898,
  "▁ви": 899,
  "ish": 900,
  "▁со": 901,
  "▁here": 902,
  "▁good": 903,
  "pon": 904,
  "▁transl": 905,
  "▁можешь": 906,
  "мер": 907,
  "blem": 908,
  "▁problem": 909,
  "▁want": 910,
  "▁conc": 911,
  "▁practical": 912,
  "цию": 913,
  "▁respon": 914,
  "▁concise": 915,
  "▁Пожалуйста": 916,
  "▁ро": 917,
  "jo": 918,
  "els": 919,
  "▁'1": 920,
  "▁words": 921,
  "шо": 922,
  "▁провер": 923,
  "▁реализа": 924,
  "▁rev": 925,
  "owels": 926,
  "▁урав": 927,
  "▁implementation": 928,
  "кажи": 929,
  "▁equation": 930,
  "ial": 931,
  "ec": 932,
  "чита": 933,
  "ке": 934,
  "▁your": 935,
  "ort": 936,
  "LE": 937,
  "OM": 938,
  "CT": 939,
  "ELE": 940,
  "ROM": 941,
  "ELECT": 942,
  "▁FROM": 943,
  "▁SELECT": 944,
  "колько": 945,
  "▁нор": 946,
  "any": 947,
  "пис": 948,
  "alu": 949,
  "▁`": 950,
  "▁уравнение": 951,
  "▁осталось": 952,
  "ql": 953,
  "sql": 954,
  "▁many": 955,
  "чество": 956,
  "▁рів": 957,
  "ust": 958,
  "ies": 959,
  "▁response": 960,
  "▁Write": 961,
  "озв": 962,
  "ld": 963,
  "няння": 964,
  "▁Розв": 965,
  "▁рівняння": 966,
  "▁both": 967,
  "дано": 968,
  "des": 969,
  "лося": 970,
  "шилося": 971,
  "▁залишилося": 972,
  "▁функцию": 973,
  "▁clean": 974,
  "носи": 975,
  "ше": 976,
  "ders": 977,
  "▁Пере": 978,
  "▁пример": 979,
  "▁Что": 980,
  "▁Переноси": 981,
  "▁Sol": 982,
  "▁sides": 983,
  "▁су": 984,
  "▁<": 985,
  "▁мне": 986,
  "▁всё": 987,
  "ент": 988,
  "ter": 989,
  "▁числа": 990,
  "ове": 991,
  "чный": 992,
  "▁простые": 993,
  "▁понятно": 994,
  "▁Use": 995,
  "▁знач": 996,
  "▁из": 997,
  "▁Мне": 998,
  "▁Используй": 999,
  "▁практичный": 1000,
  "▁Хочу": 1001,
  "▁спис": 1002,
  "▁Please": 1003,
  "▁example": 1004,
  "▁Make": 1005,
  "▁было": 1006,
  "▁Сделай": 1007,
  "рок": 1008,
  "ут": 1009,
  "▁app": 1010,
  "ime": 1011,
  "▁comp": 1012,
  "▁вер": 1013,
  "ye": 1014,
  "ery": 1015,
  "лож": 1016,
  "лемент": 1017,
  "ное": 1018,
  "▁реализация": 1019,
  "▁24": 1020,
  "▁хо": 1021,
  "▁Ре": 1022,
  "▁го": 1023,
  "ence": 1024,
  "▁==": 1025,
  "▁step": 1026,
  "ню": 1027,
  "▁рав": 1028,
  "ersion": 1029,
  "out": 1030,
  "▁version": 1031,
  "▁норма": 1032,
  "сибо": 1033,
  "▁спасибо": 1034,
  "▁translate": 1035,
  "▁or": 1036,
  "▁і": 1037,
  "▁21": 1038,
  "ome": 1039,
  "ща": 1040,
  "ово": 1041,
  "]:": 1042,
  "▁25": 1043,
  "личество": 1044,
  "▁Сколько": 1045,
  "gl": 1046,
  "ения": 1047,
  "▁При": 1048,
  "ных": 1049,
  "▁задачи": 1050,
  "цію": 1051,
  "ыва": 1052,
  "▁Thanks": 1053,
  "кі": 1054,
  "бли": 1055,
  "::": 1056,
  "▁code": 1057,
  "шу": 1058,
  "тов": 1059,
  "::-1]": 1060,
  "0.": 1061,
  "▁In": 1062,
  "ooks": 1063,
  "▁функцію": 1064,
  "ств": 1065,
  "▁cleaned": 1066,
  "кість": 1067,
  "▁число": 1068,
  "du": 1069,
  "ного": 1070,
  "ел": 1071,
  "ит": 1072,
  "▁просто": 1073,
  "ільки": 1074,
  "▁had": 1075,
  "▁not": 1076,
  "бя": 1077,
  "ліза": 1078,
  "лізація": 1079,
  "▁реалізація": 1080,
  "▁That": 1081,
  "▁L": 1082,
  "▁No": 1083,
  "ide": 1084,
  "here": 1085,
  "▁explain": 1086,
  "рова": 1087,
  "▁ру": 1088,
  "▁jo": 1089,
  "0,": 1090,
  "▁joke": 1091,
  "ch": 1092,
  "▁23": 1093,
  "же": 1094,
  "▁ц": 1095,
  "▁количество": 1096,
  "▁ря": 1097,
  "▁be": 1098,
  "▁one": 1099,
  "▁no": 1100,
  "ater": 1101,
  "▁пол": 1102,
  "▁бо": 1103,
  "▁there": 1104,
  "ги": 1105,
  "eck": 1106,
  "▁Step": 1107,
  "▁check": 1108,
  "▁22": 1109,
  "▁vowels": 1110,
  "▁Ск": 1111,
  "▁k": 1112,
  "▁30": 1113,
  "▁mo": 1114,
  "ci": 1115,
  "▁оши": 1116,
  "ving": 1117,
  "став": 1118,
  "дом": 1119,
  "луч": 1120,
  "▁ошиб": 1121,
  "▁кіль": 1122,
  "▁Вы": 1123,
  "ER": 1124,
  "ough": 1125,
  "ted": 1126,
  "ach": 1127,
  "▁Скільки": 1128,
  "ens": 1129,
  "act": 1130,
  "шин": 1131,
  "▁кількість": 1132,
  "bers": 1133,
  "▁id": 1134,
  "▁su": 1135,
  "▁запис": 1136,
  "ie": 1137,
  "дет": 1138,
  "are": 1139,
  "id": 1140,
  "▁исправ": 1141,
  "▁pl": 1142,
  "▁please": 1143,
  "▁помоги": 1144,
  "▁сделай": 1145,
  "▁sor": 1146,
  "▁Вычис": 1147,
  "SC": 1148,
  "▁Обчис": 1149,
  "зи": 1150,
  "▁It": 1151,
  "▁write": 1152,
  "RD": 1153,
  "ві": 1154,
  "ESC": 1155,
  "▁BY": 1156,
  "RDER": 1157,
  "▁DESC": 1158,
  "▁ORDER": 1159,
  "NT": 1160,
  "▁questions": 1161,
  "▁En": 1162,
  "glish": 1163,
  "▁English": 1164,
  "▁приш": 1165,
  "▁Вс": 1166,
  "(*": 1167,
  "(*)": 1168,
  "OUNT": 1169,
  "▁COUNT": 1170,
  "▁AI": 1171,
  "▁dra": 1172,
  "раща": 1173,
  "ує": 1174,
  "▁табли": 1175,
  "▁flo": 1176,
  "нов": 1177,
  "ir": 1178,
  "ве": 1179,
  "кова": 1180,
  "ток": 1181,
  "(1": 1182,
  "▁28": 1183,
  "▁яб": 1184,
  "ерж": 1185,
  "▁машин": 1186,
  "▁36": 1187,
  "▁float": 1188,
  "ady": 1189,
  "▁my": 1190,
  "▁29": 1191,
  "▁fri": 1192,
  "▁пер": 1193,
  "▁friend": 1194,
  "ack": 1195,
  "▁give": 1196,
  "▁пред": 1197,
  "▁later": 1198,
  "able": 1199,
  "list": 1200,
  "▁дела": 1201,
  "▁иде": 1202,
  "▁45": 1203,
  "▁fix": 1204,
  "▁полез": 1205,
  "▁sent": 1206,
  "▁остаток": 1207,
  "▁ли": 1208,
  "▁ri": 1209,
  "▁sentence": 1210,
  "тем": 1211,
  "▁пришли": 1212,
  "ror": 1213,
  "▁draft": 1214,
  "anation": 1215,
  "▁explanation": 1216,
  "kay": 1217,
  "appy": 1218,
  "aste": 1219,
  "▁шут": 1220,
  "▁помогу": 1221,
  "▁26": 1222,
  "▁aw": 1223,
  "▁работа": 1224,
  "рах": 1225,
  "тся": 1226,
  "▁кни": 1227,
  "▁right": 1228,
  "ров": 1229,
  "ень": 1230,
  "▁код": 1231,
  "main": 1232,
  "льное": 1233,
  "reat": 1234,
  "ice": 1235,
  "▁Let": 1236,
  "▁cor": 1237,
  "них": 1238,
  "▁'2": 1239,
  "▁r": 1240,
  "▁Then": 1241,
  "▁лі": 1242,
  "numbers": 1243,
  "▁Ф": 1244,
  "▁into": 1245,
  "▁than": 1246,
  "ый": 1247,
  "▁%": 1248,
  "use": 1249,
  "▁<=": 1250,
  "maining": 1251,
  "ём": 1252,
  "▁будет": 1253,
  "▁книг": 1254,
  "пит": 1255,
  "ться": 1256,
  "▁1:": 1257,
  "om": 1258,
  "▁correct": 1259,
  "ели": 1260,
  "▁нужно": 1261,
  "alue": 1262,
  "▁ци": 1263,
  "▁he": 1264,
  "ще": 1265,
  "seq": 1266,
  "ven": 1267,
  "0]": 1268,
  "rit": 1269,
  "▁>": 1270,
  "▁line": 1271,
  "▁writ": 1272,
  "us": 1273,
  "▁emp": 1274,
  "▁Re": 1275,
  "▁at": 1276,
  "ае": 1277,
  "')": 1278,
  "▁кото": 1279,
  "im": 1280,
  "ті": 1281,
  "ils": 1282,
  "тім": 1283,
  "▁work": 1284,
  "iven": 1285,
  "itial": 1286,
  "('": 1287,
  "зуль": 1288,
  "зульта": 1289,
  "▁сдела": 1290,
  "all": 1291,
  "▁bool": 1292,
  "AE": 1293,
  "АЕ": 1294,
  "ОУ": 1295,
  "ЮЯ": 1296,
  "AEI": 1297,
  "AEIOU": 1298,
  "▁40": 1299,
  "and": 1300,
  "▁27": 1301,
  "▁say": 1302,
  "ful": 1303,
  "()": 1304,
  "кая": 1305,
  "▁все": 1306,
  "▁кон": 1307,
  "яза": 1308,
  "▁33": 1309,
  "▁хоро": 1310,
  "дал": 1311,
  "▁gave": 1312,
  "by": 1313,
  "iew": 1314,
  "▁разб": 1315,
  "▁розв": 1316,
  "enc": 1317,
  "`?": 1318,
  "▁улуч": 1319,
  "нює": 1320,
  "тра": 1321,
  "івнює": 1322,
  "▁tell": 1323,
  "▁нормально": 1324,
  "руй": 1325,
  "▁query": 1326,
  "▁sorry": 1327,
  "▁assist": 1328,
  "[::-1]": 1329,
  "olution": 1330,
  "▁Initial": 1331,
  "▁Remaining": 1332,
  "▁solution": 1333,
  "▁стро": 1334,
  "▁Given": 1335,
  "им": 1336,
  "ram": 1337,
  "▁away": 1338,
  "ней": 1339,
  "▁find": 1340,
  "ря": 1341,
  "▁се": 1342,
  "step": 1343,
  "▁прог": 1344,
  "▁works": 1345,
  "▁use": 1346,
  "ера": 1347,
  "▁могу": 1348,
  "0',": 1349,
  "ній": 1350,
  "▁Чем": 1351,
  "▁обе": 1352,
  "ug": 1353,
  "▁Т": 1354,
  "str": 1355,
  "ляем": 1356,
  "сский": 1357,
  "▁as": 1358,
  "▁48": 1359,
  "duct": 1360,
  "▁all": 1361,
  "▁Е": 1362,
  "▁задачі": 1363,
  "ові": 1364,
  "язання": 1365,
  "ача": 1366,
  "bt": 1367,
  "▁day": 1368,
  "шей": 1369,
  "язу": 1370,
  "▁34": 1371,
  "▁часть": 1372,
  "mar": 1373,
  "гда": 1374,
  "▁35": 1375,
  "▁32": 1376,
  "▁we": 1377,
  "▁пос": 1378,
  "ду": 1379,
  "еду": 1380,
  "▁було": 1381,
  "▁Затем": 1382,
  "▁До": 1383,
  "▁другу": 1384,
  "▁друг": 1385,
  "▁was": 1386,
  "яжи": 1387,
  "▁31": 1388,
  "нійне": 1389,
  "▁лінійне": 1390,
  "loye": 1391,
  "▁37": 1392,
  "▁так": 1393,
  "loyees": 1394,
  "▁готов": 1395,
  "▁отдал": 1396,
  "▁сум": 1397,
  "▁You": 1398,
  "▁Нача": 1399,
  "▁расс": 1400,
  "btract": 1401,
  "▁Вычисляем": 1402,
  "iz": 1403,
  "▁Отдано": 1404,
  "▁Начальное": 1405,
  "▁ab": 1406,
  "▁49": 1407,
  "▁bet": 1408,
  "запит": 1409,
  "▁could": 1410,
  "чат": 1411,
  "/1": 1412,
  "▁38": 1413,
  "▁Пок": 1414,
  "дав": 1415,
  "шок": 1416,
  "люємо": 1417,
  "рокове": 1418,
  "▁Потім": 1419,
  "▁Почат": 1420,
  "▁віддав": 1421,
  "▁Віддано": 1422,
  "▁другові": 1423,
  "▁залишок": 1424,
  "▁Покрокове": 1425,
  "▁Початкова": 1426,
  "▁Обчислюємо": 1427,
  "ид": 1428,
  "ink": 1429,
  "аем": 1430,
  "▁fe": 1431,
  "ержи": 1432,
  "▁sol": 1433,
  "лимо": 1434,
  "▁All": 1435,
  "▁Реши": 1436,
  "▁short": 1437,
  "маю": 1438,
  "▁Ді": 1439,
  "идві": 1440,
  "язуємо": 1441,
  "▁праву": 1442,
  "▁Ділимо": 1443,
  "▁обидві": 1444,
  "▁частини": 1445,
  "▁частину": 1446,
  "▁Переносимо": 1447,
  "▁Решаем": 1448,
  "▁пла": 1449,
  "▁списку": 1450,
  "▁Div": 1451,
  "▁well": 1452,
  "▁Дели": 1453,
  "▁линей": 1454,
  "щё": 1455,
  "ции": 1456,
  "▁ряд": 1457,
  "▁Делим": 1458,
  "▁ошибки": 1459,
  "ould": 1460,
  "▁правую": 1461,
  "▁Solving": 1462,
  "▁линейное": 1463,
  "▁Переносим": 1464,
  "os": 1465,
  "чес": 1466,
  "▁ещё": 1467,
  "▁Solve": 1468,
  "цией": 1469,
  "ducts": 1470,
  "▁Divide": 1471,
  "▁linear": 1472,
  "▁простой": 1473,
  "▁Subtract": 1474,
  "=1": 1475,
  "5',": 1476,
  "derst": 1477,
  "▁элемент": 1478,
  "▁rew": 1479,
  "ver": 1480,
  "▁объясня": 1481,
  "йся": 1482,
  "▁ready": 1483,
  "▁review": 1484,
  "▁50": 1485,
  "oing": 1486,
  "▁Хоро": 1487,
  "▁think": 1488,
  "▁rewrite": 1489,
  "time": 1490,
  "ерём": 1491,
  "▁pol": 1492,
  "▁Всё": 1493,
  "▁Рад": 1494,
  "paste": 1495,
  "ytime": 1496,
  "▁feel": 1497,
  "▁тебя": 1498,
  "ерёмся": 1499,
  "▁Happy": 1500,
  "▁скажи": 1501,
  "▁Привет": 1502,
  "▁проверю": 1503,
  "▁переведу": 1504,
  "▁помогать": 1505,
  "▁пожалуйста": 1506,
  "▁разберёмся": 1507,
  "▁ве": 1508,
  "▁fil": 1509,
  "erse": 1510,
  "▁39": 1511,
  "▁reverse": 1512,
  "▁равно": 1513,
  "ilit": 1514,
  "2,": 1515,
  "их": 1516,
  "разу": 1517,
  "ab": 1518,
  "дин": 1519,
  "les": 1520,
  "рі": 1521,
  "ення": 1522,
  "▁does": 1523,
  "рис": 1524,
  "▁sm": 1525,
  "ёт": 1526,
  "▁42": 1527,
  "ak": 1528,
  "▁'3": 1529,
  "ления": 1530,
  "▁фор": 1531,
  "запрос": 1532,
  "▁43": 1533,
  "бра": 1534,
  "▁us": 1535,
  "час": 1536,
  "▁44": 1537,
  "bug": 1538,
  "git": 1539,
  "ount": 1540,
  "▁debug": 1541,
  "▁assistant": 1542,
  "сси": 1543,
  "ляет": 1544,
  "▁дор": 1545,
  "ustom": 1546,
  "▁дорівнює": 1547,
  "▁обчис": 1548,
  "▁уме": 1549,
  "age": 1550,
  "ther": 1551,
  "▁returns": 1552,
  "бе": 1553,
  "ener": 1554,
  "▁whi": 1555,
  "▁проходи": 1556,
  "▁Ок": 1557,
  "ustomers": 1558,
  "лів": 1559,
  "нее": 1560,
  "text": 1561,
  "▁gener": 1562,
  "▁повер": 1563,
  "зультат": 1564,
  "1:": 1565,
  "лення": 1566,
  "▁fact": 1567,
  "▁поверта": 1568,
  "pe": 1569,
  "коро": 1570,
  "рая": 1571,
  "▁см": 1572,
  "▁чисел": 1573,
  "▁up": 1574,
  "▁форму": 1575,
  "▁imp": 1576,
  "ву": 1577,
  "ятно": 1578,
  "▁41": 1579,
  "▁op": 1580,
  "лучи": 1581,
  "▁ком": 1582,
  "cor": 1583,
  "сно": 1584,
  "▁елемент": 1585,
  "ные": 1586,
  "▁па": 1587,
  "▁вычис": 1588,
  "ран": 1589,
  "▁factor": 1590,
  "вер": 1591,
  "osit": 1592,
  "▁des": 1593,
  "ёл": 1594,
  "акси": 1595,
  "▁set": 1596,
  "▁Функ": 1597,
  "ной": 1598,
  "ming": 1599,
  "▁take": 1600,
  "▁которая": 1601,
  "ейчас": 1602,
  "сли": 1603,
  "▁penc": 1604,
  "▁plan": 1605,
  "еред": 1606,
  "▁about": 1607,
  "bon": 1608,
  "▁макси": 1609,
  "▁од": 1610,
  "acci": 1611,
  "bonacci": 1612,
  "▁словами": 1613,
  "▁mean": 1614,
  "▁factorial": 1615,
  "▁ro": 1616,
  "работа": 1617,
  "▁pencils": 1618,
  "вай": 1619,
  "▁возв": 1620,
  "гля": 1621,
  "▁че": 1622,
  "▁supp": 1623,
  "▁writing": 1624,
  "▁Ру": 1625,
  "4',": 1626,
  "ook": 1627,
  "ная": 1628,
  "▁support": 1629,
  "rst": 1630,
  "▁first": 1631,
  "▁Результат": 1632,
  "лично": 1633,
  "▁better": 1634,
  "▁полезно": 1635,
  "rove": 1636,
  "чего": 1637,
  "▁ide": 1638,
  "-2": 1639,
  "ичего": 1640,
  "▁gram": 1641,
  "▁clearly": 1642,
  "дакти": 1643,
  "лиров": 1644,
  "▁care": 1645,
  "▁fine": 1646,
  "▁кодом": 1647,
  "▁понят": 1648,
  "▁переве": 1649,
  "▁формулиров": 1650,
  "▁мой": 1651,
  "▁идея": 1652,
  "▁нужна": 1653,
  "▁шутку": 1654,
  "▁polish": 1655,
  "▁thanks": 1656,
  "▁напиши": 1657,
  "▁improve": 1658,
  "▁сработа": 1659,
  "▁расскажи": 1660,
  "рам": 1661,
  "gre": 1662,
  "кой": 1663,
  "туа": 1664,
  "▁46": 1665,
  "▁пис": 1666,
  "нг": 1667,
  "▁so": 1668,
  "▁делать": 1669,
  "▁47": 1670,
  "6',": 1671,
  "ates": 1672,
  "нд": 1673,
  "▁повертає": 1674,
  "бы": 1675,
  "ить": 1676,
  "cul": 1677,
  "▁problems": 1678,
  "/2": 1679,
  "ір": 1680,
  "▁kn": 1681,
  "alcul": 1682,
  "ами": 1683,
  "рит": 1684,
  "▁ген": 1685,
  "▁шага": 1686,
  "▁скоро": 1687,
  "▁will": 1688,
  "ast": 1689,
  "ute": 1690,
  "ositive": 1691,
  "▁вариант": 1692,
  "▁Как": 1693,
  "▁time": 1694,
  "▁should": 1695,
  "лго": 1696,
  "лгорит": 1697,
  "▁л": 1698,
  "▁table": 1699,
  "▁but": 1700,
  "▁Русский": 1701,
  "▁шагам": 1702,
  "бу": 1703,
  "тер": 1704,
  "воро": 1705,
  "льный": 1706,
  "ровать": 1707,
  "▁back": 1708,
  "ess": 1709,
  "▁filter": 1710,
  "▁значит": 1711,
  "/3": 1712,
  "ранда": 1713,
  "▁каранда": 1714,
  "сор": 1715,
  "чем": 1716,
  "чка": 1717,
  "ик": 1718,
  "count": 1719,
  "ром": 1720,
  "▁ба": 1721,
  "▁know": 1722,
  "цы": 1723,
  "енно": 1724,
  "ок": 1725,
  "▁(1": 1726,
  "▁вопросы": 1727,
  "rome": 1728,
  "alind": 1729,
  "▁отве": 1730,
  "alindrome": 1731,
  "oun": 1732,
  "▁er": 1733,
  "▁отвеча": 1734,
  "чек": 1735,
  "▁день": 1736,
  "ється": 1737,
  "2.": 1738,
  "▁возвраща": 1739,
  "ph": 1740,
  "low": 1741,
  "▁чер": 1742,
  "▁turn": 1743,
  "зы": 1744,
  "▁простыми": 1745,
  "▁tw": 1746,
  "ding": 1747,
  "▁hand": 1748,
  "▁cook": 1749,
  "каза": 1750,
  "▁верси": 1751,
  "▁cookies": 1752,
  "▁карандашей": 1753,
  "фе": 1754,
  "ends": 1755,
  "стью": 1756,
  "▁ran": 1757,
  "▁only": 1758,
  "▁це": 1759,
  "▁циф": 1760,
  "abilit": 1761,
  "▁х": 1762,
  "▁see": 1763,
  "перед": 1764,
  "▁перевір": 1765,
  "дь": 1766,
  "▁AS": 1767,
  "ill": 1768,
  "▁This": 1769,
  "▁возвращает": 1770,
  "▁len": 1771,
  "▁error": 1772,
  "▁apples": 1773,
  "нь": 1774,
  "▁боль": 1775,
  "ms": 1776,
  "+1": 1777,
  "▁проверки": 1778,
  "ил": 1779,
  "ang": 1780,
  "ong": 1781,
  "▁recor": 1782,
  "▁какой": 1783,
  "4.": 1784,
  "▁V": 1785,
  "▁Не": 1786,
  "▁ста": 1787,
  "рую": 1788,
  "▁steps": 1789,
  "▁records": 1790,
  "лек": 1791,
  "тек": 1792,
  "▁Un": 1793,
  "books": 1794,
  "▁таблиці": 1795,
  "вис": 1796,
  "дёт": 1797,
  "лок": 1798,
  "вати": 1799,
  "▁сор": 1800,
  "▁|": 1801,
  "ian": 1802,
  "сто": 1803,
  "▁помощ": 1804,
  "8',": 1805,
  "▁books": 1806,
  "иш": 1807,
  "▁сто": 1808,
  "жно": 1809,
  "лук": 1810,
  "▁яблук": 1811,
  "▁предлож": 1812,
  "▁string": 1813,
  "▁шаг": 1814,
  "овать": 1815,
  "lad": 1816,
  "▁Se": 1817,
  "шить": 1818,
  "uation": 1819,
  "▁перевірки": 1820,
  "▁note": 1821,
  "▁строки": 1822,
  "▁+=": 1823,
  "▁['1": 1824,
  "▁себя": 1825,
  "гом": 1826,
  "▁dep": 1827,
  "нял": 1828,
  "▁notebooks": 1829,
  "▁light": 1830,
  "ny": 1831,
  "▁руч": 1832,
  "▁cand": 1833,
  "▁still": 1834,
  "ний": 1835,
  "thing": 1836,
  "▁while": 1837,
  "ize": 1838,
  "▁всі": 1839,
  "▁hear": 1840,
  "▁send": 1841,
  "▁пунк": 1842,
  "▁helpful": 1843,
  "▁объяснять": 1844,
  "лов": 1845,
  "▁See": 1846,
  "▁going": 1847,
  "▁тексты": 1848,
  "рю": 1849,
  "▁Со": 1850,
  "ustr": 1851,
  "▁смеш": 1852,
  "▁шаги": 1853,
  "▁digit": 1854,
  "▁хорош": 1855,
  "▁sample": 1856,
  "▁depends": 1857,
  "▁проблему": 1858,
  "драв": 1859,
  "нято": 1860,
  "▁дай": 1861,
  "висит": 1862,
  "ставь": 1863,
  "▁Take": 1864,
  "▁ясно": 1865,
  "▁перепи": 1866,
  "▁разлож": 1867,
  "▁grammar": 1868,
  "▁объяснение": 1869,
  "▁Hi": 1870,
  "ello": 1871,
  "send": 1872,
  "take": 1873,
  "▁Got": 1874,
  "ствуй": 1875,
  "▁Glad": 1876,
  "▁Good": 1877,
  "▁Okay": 1878,
  "▁Send": 1879,
  "▁okay": 1880,
  "▁soun": 1881,
  "▁Держ": 1882,
  "▁Окей": 1883,
  "▁идёт": 1884,
  "▁план": 1885,
  "▁радо": 1886,
  "▁тебе": 1887,
  "▁Hello": 1888,
  "▁funny": 1889,
  "▁thank": 1890,
  "▁Понял": 1891,
  "ращайся": 1892,
  "▁Ничего": 1893,
  "▁Хорошо": 1894,
  "▁сделаю": 1895,
  "▁улучшу": 1896,
  "derstood": 1897,
  "▁anytime": 1898,
  "▁Принято": 1899,
  "▁объясню": 1900,
  "▁разложу": 1901,
  "дравствуй": 1902,
  "▁короткая": 1903,
  "▁переведи": 1904,
  "▁перепишу": 1905,
  "▁понятный": 1906,
  "▁радостью": 1907,
  "▁Обращайся": 1908,
  "▁Understood": 1909,
  "▁нормальный": 1910,
  "▁вз": 1911,
  "мати": 1912,
  "пера": 1913,
  "▁только": 1914,
  "▁каж": 1915,
  "▁candies": 1916,
  "раз": 1917,
  "▁ar": 1918,
  "▁two": 1919,
  "day": 1920,
  "лена": 1921,
  "ник": 1922,
  "▁яблок": 1923,
  "ty": 1924,
  "2',": 1925,
  "ала": 1926,
  "стре": 1927,
  "ры": 1928,
  "кие": 1929,
  "▁чем": 1930,
  "▁ручок": 1931,
  "▁solve": 1932,
  "5.": 1933,
  "000": 1934,
  "кра": 1935,
  "▁ra": 1936,
  "6.": 1937,
  "▁вычисления": 1938,
  "▁He": 1939,
  "▁Uses": 1940,
  "вид": 1941,
  "мі": 1942,
  "ії": 1943,
  "▁pens": 1944,
  "iou": 1945,
  "▁0:": 1946,
  "ig": 1947,
  "▁value": 1948,
  "▁работает": 1949,
  "фор": 1950,
  "▁[]": 1951,
  "▁empty": 1952,
  "20": 1953,
  "▁реш": 1954,
  "Er": 1955,
  "ae": 1956,
  "even": 1957,
  "▁[0,": 1958,
  "▁під": 1959,
  "▁обчислення": 1960,
  "CP": 1961,
  "[-2": 1962,
  "ows": 1963,
  "▁1]": 1964,
  "[-1]": 1965,
  "▁[0]": 1966,
  "[-2])": 1967,
  "append": 1968,
  "▁fibonacci": 1969,
  "ио": 1970,
  "ій": 1971,
  "List": 1972,
  "Error": 1973,
  "тів": 1974,
  "▁рас": 1975,
  "читай": 1976,
  "of": 1977,
  "▁users": 1978,
  "▁образ": 1979,
  "ції": 1980,
  "▁raise": 1981,
  "[0]": 1982,
  "[1:": 1983,
  "ную": 1984,
  "▁дву": 1985,
  "[1:]:": 1986,
  "▁Value": 1987,
  "▁ValueError": 1988,
  "лис": 1989,
  "ложи": 1990,
  "ца": 1991,
  "▁подс": 1992,
  "▁range": 1993,
  "ff": 1994,
  "лее": 1995,
  "ause": 1996,
  "urry": 1997,
  "мент": 1998,
  "▁hurry": 1999,
  "▁K": 2000,
  "▁Як": 2001,
  "рует": 2002,
  "нных": 2003,
  "ывает": 2004,
  "di": 2005,
  "ЄИ": 2006,
  "ІЇ": 2007,
  "уы": 2008,
  "эю": 2009,
  "єи": 2010,
  "ИОУ": 2011,
  "ЭЮЯ": 2012,
  "аеё": 2013,
  "оую": 2014,
  "эюя": 2015,
  "ЄИІЇ": 2016,
  "ОУЮЯ": 2017,
  "аеєи": 2018,
  "иоуы": 2019,
  "оуюя": 2020,
  "aeiou": 2021,
  "vowels": 2022,
  "АЕЄИІЇ": 2023,
  "аеєиії": 2024,
  "ОУЮЯаеё": 2025,
  "иоуыэюя": 2026,
  "аеєиіїоуюя": 2027,
  "АЕЄИІЇОУЮЯаеё": 2028,
  "кое": 2029,
  "▁employees": 2030,
  "▁один": 2031,
  "op": 2032,
  "▁each": 2033,
  "стро": 2034,
  "▁конф": 2035,
  "▁воз": 2036,
  "▁orders": 2037,
  "string": 2038,
  "▁ручек": 2039,
  "фі": 2040,
  "▁конфет": 2041,
  "DP": 2042,
  "▁TCP": 2043,
  "▁UDP": 2044,
  "▁[::-1]": 2045,
  "ая": 2046,
  "лас": 2047,
  "▁Пос": 2048,
  "▁who": 2049,
  "люч": 2050,
  "▁Использу": 2051,
  "(2,": 2052,
  "▁*=": 2053,
  "▁1):": 2054,
  "ому": 2055,
  "▁си": 2056,
  "▁умеешь": 2057,
  "▁0.": 2058,
  "▁stu": 2059,
  "lower": 2060,
  "▁чтобы": 2061,
  "'.": 2062,
  "())": 2063,
  "isal": 2064,
  "join": 2065,
  "▁''.": 2066,
  "▁did": 2067,
  "isalnum": 2068,
  "▁products": 2069,
  "palindrome": 2070,
  "xim": 2071,
  "▁ma": 2072,
  "ристов": 2073,
  "па": 2074,
  "▁зо": 2075,
  "▁more": 2076,
  "ension": 2077,
  "▁дня": 2078,
  "користов": 2079,
  "користовує": 2080,
  "),": 2081,
  "дання": 2082,
  "ців": 2083,
  "▁олів": 2084,
  "▁олівців": 2085,
  "щи": 2086,
  "▁div": 2087,
  "▁более": 2088,
  "▁generate": 2089,
  "▁значение": 2090,
  "reh": 2091,
  "▁0]": 2092,
  "nums": 2093,
  "▁nums": 2094,
  "positive": 2095,
  "▁compreh": 2096,
  "▁comprehension": 2097,
  "8.": 2098,
  "▁cl": 2099,
  "uch": 2100,
  "дей": 2101,
  "▁much": 2102,
  "шего": 2103,
  "зда": 2104,
  "зыва": 2105,
  "тором": 2106,
  "▁Git": 2107,
  "▁out": 2108,
  "▁even": 2109,
  "▁тетра": 2110,
  "babilit": 2111,
  "▁язы": 2112,
  "шитів": 2113,
  "▁sele": 2114,
  "▁зошитів": 2115,
  "▁ball": 2116,
  "роятно": 2117,
  "▁small": 2118,
  "our": 2119,
  "нст": 2120,
  "▁созда": 2121,
  "▁доб": 2122,
  "уке": 2123,
  "▁some": 2124,
  "▁цуке": 2125,
  "▁цукерок": 2126,
  "▁тетрадей": 2127,
  "mon": 2128,
  "лай": 2129,
  "▁Ка": 2130,
  "▁got": 2131,
  "▁Wh": 2132,
  "▁'7": 2133,
  "ffer": 2134,
  "bability": 2135,
  "▁Ви": 2136,
  "▁pri": 2137,
  "▁road": 2138,
  "▁встре": 2139,
  "alculate": 2140,
  "art": 2141,
  "рук": 2142,
  "▁(2": 2143,
  "▁Ма": 2144,
  "▁получи": 2145,
  "▁Використовує": 2146,
  "щее": 2147,
  "▁(3": 2148,
  "▁fr": 2149,
  "▁bre": 2150,
  "▁комп": 2151,
  "данням": 2152,
  "▁спаданням": 2153,
  "▁'5": 2154,
  "ional": 2155,
  "▁conf": 2156,
  "▁сейчас": 2157,
  "она": 2158,
  "▁ин": 2159,
  "read": 2160,
  "▁цик": 2161,
  "▁помощь": 2162,
  "▁проходить": 2163,
  "ated": 2164,
  "rong": 2165,
  "▁great": 2166,
  "ip": 2167,
  "▁ср": 2168,
  "нимаю": 2169,
  "▁break": 2170,
  "▁wrong": 2171,
  "▁customers": 2172,
  "mation": 2173,
  "=2": 2174,
  "ютер": 2175,
  "▁tas": 2176,
  "▁слово": 2177,
  "angu": 2178,
  "рази": 2179,
  "▁роз": 2180,
  "▁langu": 2181,
  "mpl": 2182,
  "▁ye": 2183,
  "▁он": 2184,
  "duce": 2185,
  "▁может": 2186,
  "▁равен": 2187,
  "▁un": 2188,
  "tain": 2189,
  "▁записів": 2190,
  "arg": 2191,
  "няю": 2192,
  "раж": 2193,
  "▁then": 2194,
  "▁when": 2195,
  "▁Укра": 2196,
  "▁швид": 2197,
  "казыва": 2198,
  "▁simpl": 2199,
  "писать": 2200,
  "▁happ": 2201,
  "▁useful": 2202,
  "▁ок": 2203,
  "vert": 2204,
  "▁подд": 2205,
  "▁language": 2206,
  "ывани": 2207,
  "казать": 2208,
  "▁today": 2209,
  "▁errors": 2210,
  "king": 2211,
  "ласс": 2212,
  "▁пак": 2213,
  "▁prof": 2214,
  "ляется": 2215,
  "▁перево": 2216,
  "`,": 2217,
  "ец": 2218,
  "der": 2219,
  "▁тя": 2220,
  "rase": 2221,
  "будь": 2222,
  "▁моди": 2223,
  "нибудь": 2224,
  "▁tasks": 2225,
  "▁какие": 2226,
  "катором": 2227,
  "▁handle": 2228,
  "▁convert": 2229,
  "▁встречи": 2230,
  "▁something": 2231,
  "▁предложение": 2232,
  "map": 2233,
  "▁'0,": 2234,
  "▁col": 2235,
  "▁doing": 2236,
  "ck": 2237,
  "ёг": 2238,
  "ния": 2239,
  "ряд": 2240,
  "гляд": 2241,
  "▁top": 2242,
  "▁лёг": 2243,
  "монст": 2244,
  "▁idea": 2245,
  "monstr": 2246,
  "▁rough": 2247,
  "▁worri": 2248,
  "▁давай": 2249,
  "▁проще": 2250,
  "▁демонст": 2251,
  "▁отлично": 2252,
  "роятность": 2253,
  "▁demonstr": 2254,
  "▁улучшить": 2255,
  "▁translation": 2256,
  "▁формулировку": 2257,
  "bye": 2258,
  "gan": 2259,
  "▁уч": 2260,
  "reci": 2261,
  "вств": 2262,
  "кинь": 2263,
  "лист": 2264,
  "умаю": 2265,
  "чему": 2266,
  "▁чек": 2267,
  "esome": 2268,
  "ереги": 2269,
  "новик": 2270,
  "фесси": 2271,
  "фрази": 2272,
  "▁mind": 2273,
  "▁reph": 2274,
  "▁stay": 2275,
  "▁отре": 2276,
  "ganize": 2277,
  "ofread": 2278,
  "тельно": 2279,
  "▁фразу": 2280,
  "▁шутка": 2281,
  "▁frustr": 2282,
  "▁helped": 2283,
  "▁взгляд": 2284,
  "▁пережи": 2285,
  "essional": 2286,
  "фессиона": 2287,
  "▁appreci": 2288,
  "▁roadmap": 2289,
  "▁simpler": 2290,
  "▁исправь": 2291,
  "▁образец": 2292,
  "▁проверь": 2293,
  "▁скорого": 2294,
  "▁хорошая": 2295,
  "▁organize": 2296,
  "▁rephrase": 2297,
  "▁черновик": 2298,
  "▁checklist": 2299,
  "▁proofread": 2300,
  "▁демонстра": 2301,
  "▁отредакти": 2302,
  "▁перефрази": 2303,
  "дравствуйте": 2304,
  "▁профессиона": 2305,
  "▁professional": 2306,
  "гат": 2307,
  "тор": 2308,
  "▁поис": 2309,
  "читаем": 2310,
  "▁must": 2311,
  "▁без": 2312,
  "▁пакет": 2313,
  "▁select": 2314,
  "об": 2315,
  "▁'4": 2316,
  "▁ми": 2317,
  "▁differ": 2318,
  "▁Calculate": 2319,
  "▁ag": 2320,
  "▁записи": 2321,
  "▁значення": 2322,
  "▁'6": 2323,
  "▁мі": 2324,
  "▁спо": 2325,
  "▁rows": 2326,
  "▁яка": 2327,
  "гре": 2328,
  "▁Агре": 2329,
  "▁перем": 2330,
  "▁Агрегат": 2331,
  "ках": 2332,
  "▁уб": 2333,
  "ximum": 2334,
  "▁Чому": 2335,
  "▁выраж": 2336,
  "▁100": 2337,
  "ыванию": 2338,
  "▁maximum": 2339,
  "▁убыванию": 2340,
  "omp": 2341,
  "alues": 2342,
  "▁им": 2343,
  "луча": 2344,
  "▁values": 2345,
  "рас": 2346,
  "▁ten": 2347,
  "▁буде": 2348,
  "ue": 2349,
  "ений": 2350,
  "▁записей": 2351,
  "▁таблицы": 2352,
  "▁//": 2353,
  "лень": 2354,
  "▁Comp": 2355,
  "доб": 2356,
  "▁програм": 2357,
  "стави": 2358,
  "▁генера": 2359,
  "тому": 2360,
  "▁Compute": 2361,
  "ich": 2362,
  "ending": 2363,
  "▁Считаем": 2364,
  "▁Функция": 2365,
  "▁списка": 2366,
  "▁60": 2367,
  "emp": 2368,
  "▁If": 2369,
  "тв": 2370,
  "med": 2371,
  "тверж": 2372,
  "▁Чему": 2373,
  "▁поряд": 2374,
  "▁підрах": 2375,
  "employees": 2376,
  "▁име": 2377,
  "ерез": 2378,
  "▁кро": 2379,
  "▁можно": 2380,
  "one": 2381,
  "лос": 2382,
  "▁Все": 2383,
  "льного": 2384,
  "▁виразу": 2385,
  "▁Обчисли": 2386,
  "▁Посчитай": 2387,
  "▁On": 2388,
  "▁lo": 2389,
  "▁Вычисли": 2390,
  "▁элементов": 2391,
  "▁creat": 2392,
  "▁суму": 2393,
  "▁максима": 2394,
  "ху": 2395,
  "▁ме": 2396,
  "▁desc": 2397,
  "▁tenge": 2398,
  "ых": 2399,
  "ters": 2400,
  "жается": 2401,
  "▁balls": 2402,
  "лгоритм": 2403,
  "▁comput": 2404,
  "аково": 2405,
  "хуємо": 2406,
  "▁Опера": 2407,
  "▁кроках": 2408,
  "▁Рахуємо": 2409,
  "▁выражения": 2410,
  "при": 2411,
  "ning": 2412,
  "помо": 2413,
  "pro": 2414,
  "▁возмо": 2415,
  "▁Алгоритм": 2416,
  "имво": 2417,
  "рукту": 2418,
  "orders": 2419,
  "▁голос": 2420,
  "ним": 2421,
  "▁Мо": 2422,
  "▁фак": 2423,
  "ческий": 2424,
  "▁симво": 2425,
  "products": 2426,
  "мы": 2427,
  "▁St": 2428,
  "▁min": 2429,
  "ating": 2430,
  "▁descending": 2431,
  "ys": 2432,
  "пе": 2433,
  "▁мно": 2434,
  "ложно": 2435,
  "рахуй": 2436,
  "▁Если": 2437,
  "▁Пояс": 2438,
  "▁Порахуй": 2439,
  "зад": 2440,
  "▁Ev": 2441,
  "▁оч": 2442,
  "▁sit": 2443,
  "▁назад": 2444,
  "▁(4": 2445,
  "users": 2446,
  "▁There": 2447,
  "▁каждо": 2448,
  "3.": 2449,
  "лом": 2450,
  "лаго": 2451,
  "▁зна": 2452,
  "▁такое": 2453,
  "▁факто": 2454,
  "▁probability": 2455,
  "▁справ": 2456,
  "▁300": 2457,
  "▁ус": 2458,
  "ерну": 2459,
  "▁версия": 2460,
  "▁отправ": 2461,
  "▁работать": 2462,
  "ap": 2463,
  "мум": 2464,
  "^2": 2465,
  "▁Э": 2466,
  "ным": 2467,
  "aluate": 2468,
  "▁Evaluate": 2469,
  "ворота": 2470,
  "▁разворота": 2471,
  "ame": 2472,
  "▁писать": 2473,
  "▁решать": 2474,
  "ай": 2475,
  "own": 2476,
  "ков": 2477,
  "три": 2478,
  "нтро": 2479,
  "▁дол": 2480,
  "увати": 2481,
  "▁контро": 2482,
  "mat": 2483,
  "▁отвечать": 2484,
  "▁стра": 2485,
  "od": 2486,
  "ked": 2487,
  "▁стар": 2488,
  "▁больше": 2489,
  "це": 2490,
  "elf": 2491,
  "пер": 2492,
  "▁пошу": 2493,
  "▁голосних": 2494,
  "▁переверну": 2495,
  "лед": 2496,
  "▁если": 2497,
  "▁компь": 2498,
  "▁достав": 2499,
  "(1)": 2500,
  "▁она": 2501,
  "▁рег": 2502,
  "▁сво": 2503,
  "▁вперед": 2504,
  "▁максимум": 2505,
  "нге": 2506,
  "▁90": 2507,
  "▁Функція": 2508,
  "▁Оператор": 2509,
  "▁перевернуто": 2510,
  "дель": 2511,
  "ндро": 2512,
  "▁gre": 2513,
  "▁Очи": 2514,
  "▁oper": 2515,
  "ндрома": 2516,
  "сте": 2517,
  "▁al": 2518,
  "arch": 2519,
  "овно": 2520,
  "▁where": 2521,
  "▁максимального": 2522,
  "▁Al": 2523,
  "▁через": 2524,
  "▁компьютер": 2525,
  "роб": 2526,
  "бонач": 2527,
  "▁швидко": 2528,
  "▁структу": 2529,
  "▁'9": 2530,
  "▁Это": 2531,
  "▁малень": 2532,
  "са": 2533,
  "▁мар": 2534,
  "▁order": 2535,
  "▁which": 2536,
  "*1": 2537,
  "ata": 2538,
  "for": 2539,
  "знач": 2540,
  "▁data": 2541,
  "▁двух": 2542,
  "▁ін": 2543,
  "огда": 2544,
  "▁тенге": 2545,
  "▁перемно": 2546,
  "вой": 2547,
  "▁выбра": 2548,
  "ike": 2549,
  "self": 2550,
  "▁sec": 2551,
  "▁digits": 2552,
  "▁елементів": 2553,
  "▁72": 2554,
  "▁Под": 2555,
  "▁маси": 2556,
  "customers": 2557,
  "ond": 2558,
  "*2": 2559,
  "кую": 2560,
  "стно": 2561,
  "▁изв": 2562,
  "▁too": 2563,
  "ecause": 2564,
  "ходится": 2565,
  "▁проходит": 2566,
  "ose": 2567,
  "вор": 2568,
  "мот": 2569,
  "▁ele": 2570,
  "▁ins": 2571,
  "▁tra": 2572,
  "▁масси": 2573,
  "/4": 2574,
  "▁прави": 2575,
  "аку": 2576,
  "ев": 2577,
  "eri": 2578,
  "ign": 2579,
  "форма": 2580,
  "=3": 2581,
  "бро": 2582,
  "ments": 2583,
  "▁глас": 2584,
  "ertain": 2585,
  "▁гласных": 2586,
  "erv": 2587,
  "мет": 2588,
  "▁ак": 2589,
  "акуу": 2590,
  "▁exact": 2591,
  "▁вакуу": 2592,
  "..": 2593,
  "ваю": 2594,
  "▁вид": 2595,
  "inder": 2596,
  "▁след": 2597,
  "ери": 2598,
  "▁Та": 2599,
  "▁бе": 2600,
  "aches": 2601,
  "▁exactly": 2602,
  "if": 2603,
  "▁One": 2604,
  "ading": 2605,
  "gress": 2606,
  "▁answ": 2607,
  "▁того": 2608,
  "ложить": 2609,
  "▁прогре": 2610,
  "▁progress": 2611,
  "▁Использует": 2612,
  "ta": 2613,
  "дит": 2614,
  "▁9.": 2615,
  "ленно": 2616,
  "льная": 2617,
  "▁него": 2618,
  "▁Добро": 2619,
  "ics": 2620,
  "ous": 2621,
  "стви": 2622,
  "▁ровно": 2623,
  "▁состав": 2624,
  "7.": 2625,
  "▁bl": 2626,
  "мени": 2627,
  "▁prov": 2628,
  "рый": 2629,
  "ших": 2630,
  "▁thr": 2631,
  "▁уже": 2632,
  "чески": 2633,
  "▁rema": 2634,
  "▁верши": 2635,
  "нар": 2636,
  "това": 2637,
  "▁arra": 2638,
  "▁like": 2639,
  "▁requ": 2640,
  "▁пока": 2641,
  "to": 2642,
  "▁га": 2643,
  "▁down": 2644,
  "сортова": 2645,
  "▁порядке": 2646,
  "▁відсортова": 2647,
  "ag": 2648,
  "no": 2649,
  "▁hi": 2650,
  "▁точка": 2651,
  "▁remainder": 2652,
  "1.": 2653,
  "ars": 2654,
  "▁bra": 2655,
  "▁per": 2656,
  "▁получится": 2657,
  "пу": 2658,
  "▁eas": 2659,
  "▁чет": 2660,
  "▁mult": 2661,
  "▁надо": 2662,
  "даю": 2663,
  "лий": 2664,
  "▁cal": 2665,
  "▁даних": 2666,
  "▁доста": 2667,
  "▁search": 2668,
  "▁Con": 2669,
  "▁don": 2670,
  "▁lot": 2671,
  "▁show": 2672,
  "▁second": 2673,
  "▁answers": 2674,
  "▁возможно": 2675,
  "▁маленький": 2676,
  "▁54": 2677,
  "▁My": 2678,
  "▁сов": 2679,
  "50": 2680,
  "ns": 2681,
  "▁гра": 2682,
  "▁дви": 2683,
  "нений": 2684,
  "аль": 2685,
  "fter": 2686,
  "▁deta": 2687,
  "▁mist": 2688,
  "▁благо": 2689,
  "▁вычита": 2690,
  "вя": 2691,
  "жал": 2692,
  "юда": 2693,
  "ging": 2694,
  "▁дей": 2695,
  "▁спе": 2696,
  "▁easy": 2697,
  "▁верно": 2698,
  "▁перес": 2699,
  "▁сумма": 2700,
  "▁through": 2701,
  "1',": 2702,
  "чет": 2703,
  "▁Ke": 2704,
  "кать": 2705,
  "лийс": 2706,
  "▁cap": 2707,
  "▁луч": 2708,
  "▁рядом": 2709,
  "uss": 2710,
  "мом": 2711,
  "раг": 2712,
  "pect": 2713,
  "дачи": 2714,
  "eriod": 2715,
  "прави": 2716,
  "▁come": 2717,
  "▁очень": 2718,
  "▁алгорит": 2719,
  "ni": 2720,
  "аю": 2721,
  "yle": 2722,
  "▁en": 2723,
  "утка": 2724,
  "▁pun": 2725,
  "▁види": 2726,
  "▁двига": 2727,
  "▁design": 2728,
  "▁worked": 2729,
  "▁действи": 2730,
  "▁неправи": 2731,
  "▁computer": 2732,
  "ись": 2733,
  "▁4.": 2734,
  "▁кре": 2735,
  "▁кто": 2736,
  "точно": 2737,
  "▁Один": 2738,
  "▁общи": 2739,
  "нглийс": 2740,
  "▁выгля": 2741,
  "рагмент": 2742,
  "▁enough": 2743,
  "▁сделал": 2744,
  "derstand": 2745,
  "▁details": 2746,
  "▁general": 2747,
  "▁understand": 2748,
  "9.": 2749,
  "ree": 2750,
  "гру": 2751,
  "▁80": 2752,
  "used": 2753,
  "▁very": 2754,
  "тирова": 2755,
  "▁style": 2756,
  "▁много": 2757,
  "▁happen": 2758,
  "▁информа": 2759,
  "▁фрагмент": 2760,
  "▁situation": 2761,
  "▁приходится": 2762,
  "+2": 2763,
  "▁z": 2764,
  "▁56": 2765,
  "uted": 2766,
  "▁mod": 2767,
  "▁tal": 2768,
  "▁пиш": 2769,
  "▁reas": 2770,
  "▁looks": 2771,
  "▁plain": 2772,
  "▁punct": 2773,
  "formation": 2774,
  "▁написать": 2775,
  "▁достаточно": 2776,
  "ary": 2777,
  "▁5.": 2778,
  "▁оп": 2779,
  "ares": 2780,
  "come": 2781,
  "rote": 2782,
  "десь": 2783,
  "▁свя": 2784,
  "▁грам": 2785,
  "добный": 2786,
  "ратный": 2787,
  "▁equal": 2788,
  "▁wrote": 2789,
  "▁здесь": 2790,
  "▁лучше": 2791,
  "▁reason": 2792,
  "▁видимо": 2793,
  "▁хорошо": 2794,
  "▁produce": 2795,
  "▁provide": 2796,
  "▁выглядит": 2797,
  "▁поддержи": 2798,
  "▁разложить": 2799,
  "чел": 2800,
  "шру": 2801,
  "▁deal": 2802,
  "▁прин": 2803,
  "едленно": 2804,
  "▁moving": 2805,
  "▁именно": 2806,
  "▁маршру": 2807,
  "▁создан": 2808,
  "▁Because": 2809,
  "▁готовый": 2810,
  "▁information": 2811,
  "▁punctuation": 2812,
  "fir": 2813,
  "пко": 2814,
  "там": 2815,
  "▁3,": 2816,
  "ьмом": 2817,
  "▁bad": 2818,
  "arent": 2819,
  "▁Russ": 2820,
  "▁дать": 2821,
  "▁поло": 2822,
  "▁тяже": 2823,
  "▁умею": 2824,
  "зовать": 2825,
  "▁ideas": 2826,
  "▁model": 2827,
  "▁worry": 2828,
  "▁пишет": 2829,
  "▁связи": 2830,
  "▁ситуа": 2831,
  "▁целом": 2832,
  "▁writes": 2833,
  "▁Сейчас": 2834,
  "▁принци": 2835,
  "▁удобный": 2836,
  "▁yourself": 2837,
  "▁медленно": 2838,
  "▁неправильно": 2839,
  "ah": 2840,
  "iny": 2841,
  "ure": 2842,
  "рял": 2843,
  "nipp": 2844,
  "stor": 2845,
  "▁Don": 2846,
  "▁ste": 2847,
  "izing": 2848,
  "ковая": 2849,
  "▁nice": 2850,
  "▁Есть": 2851,
  "▁Прис": 2852,
  "▁дово": 2853,
  "▁сюда": 2854,
  "nippet": 2855,
  "челове": 2856,
  "▁noted": 2857,
  "▁Класс": 2858,
  "▁пожал": 2859,
  "▁случи": 2860,
  "▁шагом": 2861,
  "приятно": 2862,
  "▁counts": 2863,
  "▁summar": 2864,
  "▁подроб": 2865,
  "▁поправ": 2866,
  "▁тяжело": 2867,
  "▁Russian": 2868,
  "▁context": 2869,
  "▁dealing": 2870,
  "▁snippet": 2871,
  "▁worries": 2872,
  "▁зависит": 2873,
  "▁коротко": 2874,
  "▁краткое": 2875,
  "▁редакти": 2876,
  "▁happened": 2877,
  "▁граммати": 2878,
  "▁довольно": 2879,
  "▁ситуации": 2880,
  "▁исправить": 2881,
  "▁объяснить": 2882,
  "▁случилось": 2883,
  "▁absolutely": 2884,
  "▁реализацией": 2885,
  "▁explanations": 2886,
  "вое": 2887,
  "дро": 2888,
  "ишь": 2889,
  "усь": 2890,
  "щих": 2891,
  "▁Aw": 2892,
  "▁ИИ": 2893,
  "▁Ты": 2894,
  "▁кэ": 2895,
  "glad": 2896,
  "внее": 2897,
  "дарю": 2898,
  "коен": 2899,
  "чкам": 2900,
  "щник": 2901,
  "ылай": 2902,
  "▁Bye": 2903,
  "▁Hey": 2904,
  "▁Why": 2905,
  "▁hey": 2906,
  "▁wel": 2907,
  "ишься": 2908,
  "мотрю": 2909,
  "просу": 2910,
  "стрял": 2911,
  "шного": 2912,
  "▁Come": 2913,
  "▁Have": 2914,
  "▁Keep": 2915,
  "▁Nice": 2916,
  "▁Stay": 2917,
  "▁calm": 2918,
  "▁smoo": 2919,
  "▁tiny": 2920,
  "▁tone": 2921,
  "▁Могу": 2922,
  "▁Пока": 2923,
  "▁Сочу": 2924,
  "▁акку": 2925,
  "▁идей": 2926,
  "▁изви": 2927,
  "▁норм": 2928,
  "▁разо": 2929,
  "▁твор": 2930,
  "▁темы": 2931,
  "▁учёл": 2932,
  "▁хочу": 2933,
  "firmed": 2934,
  "instor": 2935,
  "period": 2936,
  "ботает": 2937,
  "вствую": 2938,
  "текста": 2939,
  "▁Doing": 2940,
  "▁Great": 2941,
  "▁happy": 2942,
  "▁hello": 2943,
  "▁paste": 2944,
  "▁seems": 2945,
  "▁solid": 2946,
  "▁sound": 2947,
  "▁stuck": 2948,
  "▁tough": 2949,
  "▁Держи": 2950,
  "▁Думаю": 2951,
  "▁Удачи": 2952,
  "▁багом": 2953,
  "▁бодро": 2954,
  "▁держи": 2955,
  "▁кэшей": 2956,
  "▁отсор": 2957,
  "▁понял": 2958,
  "▁скинь": 2959,
  "▁спеши": 2960,
  "arently": 2961,
  "туацией": 2962,
  "чеством": 2963,
  "▁asking": 2964,
  "▁caches": 2965,
  "▁coding": 2966,
  "▁coming": 2967,
  "▁sounds": 2968,
  "▁steady": 2969,
  "▁topics": 2970,
  "▁Береги": 2971,
  "▁Бывает": 2972,
  "▁Всегда": 2973,
  "▁Потому": 2974,
  "▁Почему": 2975,
  "▁вставь": 2976,
  "▁генери": 2977,
  "▁делаем": 2978,
  "▁добрый": 2979,
  "▁заходи": 2980,
  "▁идеями": 2981,
  "▁искать": 2982,
  "▁крепко": 2983,
  "▁лёгкая": 2984,
  "▁модель": 2985,
  "▁общими": 2986,
  "▁ответь": 2987,
  "▁подгру": 2988,
  "▁покажи": 2989,
  "▁правда": 2990,
  "▁привет": 2991,
  "▁сложно": 2992,
  "▁старта": 2993,
  "ertainly": 2994,
  "казывать": 2995,
  "помощник": 2996,
  "тверждаю": 2997,
  "▁Anytime": 2998,
  "▁Awesome": 2999,
  "▁Goodbye": 3000,
  "▁inspect": 3001,
  "▁loading": 3002,
  "▁request": 3003,
  "▁welcome": 3004,
  "▁Держись": 3005,
  "▁Держусь": 3006,
  "▁Зависит": 3007,
  "▁Отлично": 3008,
  "▁Понимаю": 3009,
  "▁Поясняю": 3010,
  "▁вычитаю": 3011,
  "▁запросу": 3012,
  "▁застрял": 3013,
  "▁маршрут": 3014,
  "▁письмом": 3015,
  "▁плавнее": 3016,
  "▁помогаю": 3017,
  "▁пунктам": 3018,
  "▁русский": 3019,
  "▁смешной": 3020,
  "▁спокоен": 3021,
  "▁текстов": 3022,
  "ассистент": 3023,
  "▁creative": 3024,
  "▁designed": 3025,
  "▁drafting": 3026,
  "▁polished": 3027,
  "▁smoother": 3028,
  "▁Присылай": 3029,
  "▁Работает": 3030,
  "▁Хорошего": 3031,
  "▁двигайся": 3032,
  "▁действий": 3033,
  "▁задачами": 3034,
  "▁исправим": 3035,
  "▁исправлю": 3036,
  "▁объясняю": 3037,
  "▁отвечает": 3038,
  "▁отправки": 3039,
  "▁перепиши": 3040,
  "▁полезный": 3041,
  "▁полочкам": 3042,
  "▁поправлю": 3043,
  "▁посмотрю": 3044,
  "▁прогресс": 3045,
  "▁языковая": 3046,
  "instorming": 3047,
  "▁Certainly": 3048,
  "▁Confirmed": 3049,
  "▁debugging": 3050,
  "▁благодарю": 3051,
  "▁вопросами": 3052,
  "▁контекста": 3053,
  "▁неприятно": 3054,
  "▁переводом": 3055,
  "▁переживай": 3056,
  "▁подробнее": 3057,
  "▁сработало": 3058,
  "▁сработать": 3059,
  "▁страшного": 3060,
  "человечески": 3061,
  "▁apparently": 3062,
  "▁appreciate": 3063,
  "▁reasonable": 3064,
  "▁Сочувствую": 3065,
  "▁аккуратный": 3066,
  "▁грамматику": 3067,
  "▁объяснений": 3068,
  "▁пожаловать": 3069,
  "▁справишься": 3070,
  "▁frustrating": 3071,
  "▁summarizing": 3072,
  "▁Подтверждаю": 3073,
  "▁информацией": 3074,
  "▁отсортирова": 3075,
  "▁пунктуацией": 3076,
  "▁творчеством": 3077,
  "▁Здравствуйте": 3078,
  "▁генерировать": 3079,
  "▁демонстрация": 3080,
  "▁отредактирую": 3081,
  "▁перефразирую": 3082,
  "▁подгружается": 3083,
  "▁практический": 3084,
  "▁формулировка": 3085,
  "▁brainstorming": 3086,
  "▁demonstration": 3087,
  "▁пересказывать": 3088,
  "▁редактировать": 3089,
  "тел": 3090,
  "▁бук": 3091,
  "▁sorted": 3092,
  "▁55": 3093,
  "вает": 3094,
  "равни": 3095,
  "dit": 3096,
  "том": 3097,
  "▁10:": 3098,
  "har": 3099,
  "▁1,": 3100,
  "▁6.": 3101,
  "▁3:": 3102,
  "▁63": 3103,
  "▁Ge": 3104,
  "▁следую": 3105,
  "▁выбрать": 3106,
  "би": 3107,
  "сті": 3108,
  "▁2,": 3109,
  "▁сколько": 3110,
  "ily": 3111,
  "orge": 3112,
  "▁George": 3113,
  "ore": 3114,
  "вча": 3115,
  "▁6:": 3116,
  "▁po": 3117,
  "▁состави": 3118,
  "▁75": 3119,
  "вороту": 3120,
  "▁Украї": 3121,
  "▁рядка": 3122,
  "▁случа": 3123,
  "▁каждого": 3124,
  "▁розвороту": 3125,
  "ket": 3126,
  "йди": 3127,
  "▁divid": 3128,
  "alf": 3129,
  "log": 3130,
  "чит": 3131,
  "rank": 3132,
  "ария": 3133,
  "▁10.": 3134,
  "▁Frank": 3135,
  "ніх": 3136,
  "▁сравни": 3137,
  "передніх": 3138,
  "▁попередніх": 3139,
  "ця": 3140,
  "▁9:": 3141,
  "▁half": 3142,
  "ходить": 3143,
  "▁сравнивает": 3144,
  "фи": 3145,
  "ыду": 3146,
  "▁5:": 3147,
  "ible": 3148,
  "▁предыду": 3149,
  "▁sp": 3150,
  "▁prior": 3151,
  "що": 3152,
  "▁2:": 3153,
  "▁64": 3154,
  "▁8:": 3155,
  "▁яв": 3156,
  "▁12:": 3157,
  "▁эти": 3158,
  "▁99": 3159,
  "▁sl": 3160,
  "▁над": 3161,
  "▁долж": 3162,
  "▁сумму": 3163,
  "▁результа": 3164,
  "gram": 3165,
  "▁three": 3166,
  "▁program": 3167,
  "▁79": 3168,
  "льга": 3169,
  "▁Ольга": 3170,
  "▁данных": 3171,
  "▁поиска": 3172,
  "ex": 3173,
  "▁different": 3174,
  "под": 3175,
  "сту": 3176,
  "▁час": 3177,
  "am": 3178,
  "▁sub": 3179,
  "arget": 3180,
  "▁years": 3181,
  "▁target": 3182,
  "▁Какова": 3183,
  "lie": 3184,
  "бор": 3185,
  "iana": 3186,
  "▁кар": 3187,
  "▁Char": 3188,
  "▁Charlie": 3189,
  "ван": 3190,
  "irst": 3191,
  "3',": 3192,
  "вета": 3193,
  "лекс": 3194,
  "нило": 3195,
  "▁Diana": 3196,
  "▁Данило": 3197,
  "▁without": 3198,
  "▁120": 3199,
  "▁lear": 3200,
  "7',": 3201,
  "сій": 3202,
  "▁ду": 3203,
  "▁км": 3204,
  "▁First": 3205,
  "ger": 3206,
  "len": 3207,
  "реде": 3208,
  "▁Алекс": 3209,
  "ном": 3210,
  "▁6,": 3211,
  "▁8,": 3212,
  "▁Мария": 3213,
  "▁составляет": 3214,
  "▁гру": 3215,
  "▁кож": 3216,
  "▁мет": 3217,
  "▁пошуку": 3218,
  "▁кожного": 3219,
  "▁compares": 3220,
  "AI": 3221,
  "▁ни": 3222,
  "exus": 3223,
  "бора": 3224,
  "▁пор": 3225,
  "▁мень": 3226,
  "exusAI": 3227,
  "▁NexusAI": 3228,
  "ity": 3229,
  "ush": 3230,
  "ків": 3231,
  "▁навча": 3232,
  "▁остав": 3233,
  "▁прости": 3234,
  "▁divided": 3235,
  "▁функція": 3236,
  "▁вероятность": 3237,
  "рое": 3238,
  "▁4:": 3239,
  "▁66": 3240,
  "▁opt": 3241,
  "▁inte": 3242,
  "▁Алексей": 3243,
  "▁ку": 3244,
  "ении": 3245,
  "▁using": 3246,
  "▁послед": 3247,
  "дж": 3248,
  "▁Bo": 3249,
  "▁пар": 3250,
  "▁Helen": 3251,
  "пользова": 3252,
  "ance": 3253,
  "▁Bob": 3254,
  "▁поз": 3255,
  "▁5,": 3256,
  "akes": 3257,
  "▁mid": 3258,
  "▁является": 3259,
  "99": 3260,
  "ard": 3261,
  "▁тр": 3262,
  "▁Елена": 3263,
  "=6": 3264,
  "▁70": 3265,
  "inary": 3266,
  "цю": 3267,
  "red": 3268,
  "▁Em": 3269,
  "рант": 3270,
  "▁кома": 3271,
  "▁Emily": 3272,
  "▁Тарас": 3273,
  "▁гарант": 3274,
  "ade": 3275,
  "гах": 3276,
  "▁7:": 3277,
  "▁где": 3278,
  "▁букв": 3279,
  "▁строк": 3280,
  "мен": 3281,
  "▁ol": 3282,
  "▁get": 3283,
  "▁использова": 3284,
  "▁4,": 3285,
  "бору": 3286,
  "▁11.": 3287,
  "▁pop": 3288,
  "▁Ключ": 3289,
  "▁needed": 3290,
  "▁функция": 3291,
  "аил": 3292,
  "тує": 3293,
  "▁57": 3294,
  "▁Мих": 3295,
  "огдан": 3296,
  "matical": 3297,
  "▁calcul": 3298,
  "▁Богдан": 3299,
  "▁Михаил": 3300,
  "▁вибору": 3301,
  "▁модифі": 3302,
  "▁сортує": 3303,
  "▁Ключове": 3304,
  "▁результати": 3305,
  "▁відсортованих": 3306,
  "▁модифікатором": 3307,
  "=4": 3308,
  "шёл": 3309,
  "▁Ки": 3310,
  "▁Out": 3311,
  "▁выбора": 3312,
  "▁меньше": 3313,
  "dent": 3314,
  "ясни": 3315,
  "▁299": 3316,
  "▁массива": 3317,
  "1,": 3318,
  "digit": 3319,
  "▁Each": 3320,
  "▁trav": 3321,
  "▁Иван": 3322,
  "ero": 3323,
  "▁7.": 3324,
  "atch": 3325,
  "atur": 3326,
  "▁15.": 3327,
  "▁сред": 3328,
  "читать": 3329,
  "FO": 3330,
  "IFO": 3331,
  "▁як": 3332,
  "▁LIFO": 3333,
  "▁таке": 3334,
  "▁нач": 3335,
  "▁срез": 3336,
  "▁элементы": 3337,
  "іє": 3338,
  "▁'8": 3339,
  "▁68": 3340,
  "Last": 3341,
  "стри": 3342,
  "▁11:": 3343,
  "▁case": 3344,
  "▁push": 3345,
  "▁colum": 3346,
  "рія": 3347,
  "фія": 3348,
  "▁8.": 3349,
  "ator": 3350,
  "▁after": 3351,
  "▁Марія": 3352,
  "▁Софія": 3353,
  "sequ": 3354,
  "жную": 3355,
  "ступ": 3356,
  "▁чём": 3357,
  "▁zero": 3358,
  "▁цикле": 3359,
  "▁integer": 3360,
  "сана": 3361,
  "▁зачем": 3362,
  "▁columns": 3363,
  "▁84": 3364,
  "вида": 3365,
  "овує": 3366,
  "мирует": 3367,
  "▁порах": 3368,
  "sequent": 3369,
  "▁рядків": 3370,
  "▁Агрегатна": 3371,
  "▁одинаково": 3372,
  "▁суммирует": 3373,
  "▁порахувати": 3374,
  "▁підраховує": 3375,
  "fi": 3376,
  "ect": 3377,
  "▁why": 3378,
  "▁Каж": 3379,
  "▁slic": 3380,
  "▁України": 3381,
  "ass": 3382,
  "▁000": 3383,
  "▁отла": 3384,
  "▁стол": 3385,
  "без": 3386,
  "▁18.": 3387,
  "▁19.": 3388,
  "▁com": 3389,
  "ходит": 3390,
  "▁Alice": 3391,
  "▁порівнює": 3392,
  "▁посчитать": 3393,
  "нна": 3394,
  "▁sc": 3395,
  "▁Анд": 3396,
  "▁систе": 3397,
  "ith": 3398,
  "жує": 3399,
  "кус": 3400,
  "рій": 3401,
  "▁затем": 3402,
  "▁сорти": 3403,
  "▁Андрій": 3404,
  "▁Оксана": 3405,
  "▁таблице": 3406,
  "▁составить": 3407,
  "▁subsequent": 3408,
  "пор": 3409,
  "чер": 3410,
  "▁ev": 3411,
  "▁12.": 3412,
  "безпе": 3413,
  "▁made": 3414,
  "▁start": 3415,
  "▁друго": 3416,
  "▁забезпе": 3417,
  "3:": 3418,
  "люче": 3419,
  "▁сек": 3420,
  "▁white": 3421,
  "▁равна": 3422,
  "▁greater": 3423,
  "▁сортирует": 3424,
  "▁:": 3425,
  "рех": 3426,
  "чики": 3427,
  "▁its": 3428,
  "▁mem": 3429,
  "aract": 3430,
  "▁Ключе": 3431,
  "▁шаров": 3432,
  "▁модифи": 3433,
  "▁пробел": 3434,
  "▁charact": 3435,
  "▁подсчит": 3436,
  "▁Ключевое": 3437,
  "▁модификатором": 3438,
  "▁отсортированных": 3439,
  "oc": 3440,
  "▁52": 3441,
  "▁Fi": 3442,
  "▁или": 3443,
  "other": 3444,
  "вання": 3445,
  "▁Олена": 3446,
  "▁student": 3447,
  "▁calculates": 3448,
  "▁pr": 3449,
  "▁фи": 3450,
  "▁Сто": 3451,
  "▁горо": 3452,
  "*3": 3453,
  "стя": 3454,
  "ять": 3455,
  "▁88": 3456,
  "gate": 3457,
  "ions": 3458,
  "▁лет": 3459,
  "▁aggre": 3460,
  "▁столб": 3461,
  "▁positive": 3462,
  "▁aggregate": 3463,
  "/6": 3464,
  "orts": 3465,
  "▁цифр": 3466,
  "▁array": 3467,
  "▁Запрос": 3468,
  "▁столбцы": 3469,
  "9:": 3470,
  "rou": 3471,
  "маль": 3472,
  "▁20.": 3473,
  "▁fast": 3474,
  "▁отри": 3475,
  "atural": 3476,
  "▁строку": 3477,
  "▁Fibonacci": 3478,
  "▁следующее": 3479,
  "▁Агрегатная": 3480,
  "▁подсчитывает": 3481,
  "▁Ве": 3482,
  "▁ite": 3483,
  "▁случае": 3484,
  "▁є": 3485,
  "віт": 3486,
  "▁51": 3487,
  "00',": 3488,
  "aces": 3489,
  "щает": 3490,
  "▁14.": 3491,
  "▁sums": 3492,
  "▁секун": 3493,
  "▁деления": 3494,
  "▁elements": 3495,
  "ым": 3496,
  "ляє": 3497,
  "▁фай": 3498,
  "▁чёт": 3499,
  "телек": 3500,
  "▁multi": 3501,
  "▁natural": 3502,
  "▁інтелек": 3503,
  "▁computed": 3504,
  "+3": 3505,
  "au": 3506,
  "▁16.": 3507,
  "брати": 3508,
  "рован": 3509,
  "▁перв": 3510,
  "▁множи": 3511,
  "▁results": 3512,
  "/5": 3513,
  "ые": 3514,
  "ath": 3515,
  "овп": 3516,
  "▁gu": 3517,
  "перь": 3518,
  "тери": 3519,
  "▁che": 3520,
  "▁spe": 3521,
  "▁дан": 3522,
  "▁stri": 3523,
  "▁Запит": 3524,
  "▁имеет": 3525,
  "▁рядки": 3526,
  "▁стовп": 3527,
  "▁програ": 3528,
  "▁вибрати": 3529,
  "▁пробелов": 3530,
  "▁character": 3531,
  "▁стовпчики": 3532,
  "+8": 3533,
  "25": 3534,
  "9',": 3535,
  "жне": 3536,
  "трий": 3537,
  "▁10,": 3538,
  "▁Дми": 3539,
  "▁бел": 3540,
  "▁'6',": 3541,
  "▁word": 3542,
  "▁быть": 3543,
  "▁speed": 3544,
  "▁сумує": 3545,
  "▁циклі": 3546,
  "люється": 3547,
  "▁масиву": 3548,
  "читается": 3549,
  "▁multipl": 3550,
  "▁Дмитрий": 3551,
  "▁елементи": 3552,
  "▁обчислюється": 3553,
  "ние": 3554,
  "▁77": 3555,
  "▁17.": 3556,
  "▁blue": 3557,
  "▁modi": 3558,
  "▁would": 3559,
  "▁Столи": 3560,
  "▁опера": 3561,
  "▁регис": 3562,
  "▁slicing": 3563,
  "▁operator": 3564,
  "▁доставку": 3565,
  "oop": 3566,
  "бот": 3567,
  "кою": 3568,
  "стру": 3569,
  "ersal": 3570,
  "ською": 3571,
  "▁hour": 3572,
  "▁loop": 3573,
  "▁иско": 3574,
  "▁items": 3575,
  "▁когда": 3576,
  "▁python": 3577,
  "▁версией": 3578,
  "▁reversal": 3579,
  "▁регистра": 3580,
  "▁перевернутой": 3581,
  "we": 3582,
  "gor": 3583,
  "зац": 3584,
  "▁same": 3585,
  "▁пали": 3586,
  "▁clause": 3587,
  "▁версій": 3588,
  "▁members": 3589,
  "▁Очищает": 3590,
  "▁палиндрома": 3591,
  "hip": 3592,
  "sed": 3593,
  "▁ту": 3594,
  "ально": 3595,
  "ріала": 3596,
  "▁sorts": 3597,
  "▁modifi": 3598,
  "▁факторіала": 3599,
  "▁Go": 3600,
  "▁чи": 3601,
  "ithm": 3602,
  "лови": 3603,
  "▁par": 3604,
  "▁кра": 3605,
  "▁them": 3606,
  "▁algor": 3607,
  "▁divis": 3608,
  "▁должен": 3609,
  "▁списке": 3610,
  "▁modifier": 3611,
  "▁algorithm": 3612,
  "▁'12": 3613,
  "начала": 3614,
  "▁Каждо": 3615,
  "▁система": 3616,
  "▁Вероятность": 3617,
  "2:": 3618,
  "люб": 3619,
  "▁уп": 3620,
  "▁upd": 3621,
  "▁next": 3622,
  "руется": 3623,
  "▁місто": 3624,
  "▁чётным": 3625,
  "▁updates": 3626,
  "▁символу": 3627,
  "▁вычисляется": 3628,
  "▁Фи": 3629,
  "▁аб": 3630,
  "ctly": 3631,
  "imes": 3632,
  "ired": 3633,
  "▁old": 3634,
  "▁вто": 3635,
  "erses": 3636,
  "▁larg": 3637,
  "▁were": 3638,
  "▁доро": 3639,
  "▁город": 3640,
  "▁обнов": 3641,
  "боначчи": 3642,
  "▁strictly": 3643,
  "▁traverses": 3644,
  "▁Фибоначчи": 3645,
  "▁обновляет": 3646,
  "▁200": 3647,
  "▁rep": 3648,
  "строго": 3649,
  "▁Каждое": 3650,
  "▁другой": 3651,
  "▁another": 3652,
  "▁filters": 3653,
  "ince": 3654,
  "темати": 3655,
  "▁секунду": 3656,
  "▁фактори": 3657,
  "▁быстрого": 3658,
  "▁Используется": 3659,
  "▁использовать": 3660,
  "6:": 3661,
  "▁ж": 3662,
  "▁ти": 3663,
  "ween": 3664,
  "чета": 3665,
  "▁нет": 3666,
  "▁зако": 3667,
  "achine": 3668,
  "▁положи": 3669,
  "▁услови": 3670,
  "▁генерации": 3671,
  "▁membership": 3672,
  "▁предыдущих": 3673,
  "8:": 3674,
  "St": 3675,
  "ины": 3676,
  "▁km": 3677,
  "ange": 3678,
  "raph": 3679,
  "▁dis": 3680,
  "▁Анна": 3681,
  "▁итери": 3682,
  "▁забезпечу": 3683,
  "▁перемножа": 3684,
  "▁положитель": 3685,
  "its": 3686,
  "(1).": 3687,
  "унку": 3688,
  "верти": 3689,
  "▁дума": 3690,
  "▁літер": 3691,
  "▁рядку": 3692,
  "▁цифры": 3693,
  "▁множину": 3694,
  "▁швидкої": 3695,
  "▁математи": 3696,
  "▁підрахунку": 3697,
  "▁факториала": 3698,
  "▁итерируется": 3699,
  "▁перемножает": 3700,
  "зь": 3701,
  "gat": 3702,
  "ови": 3703,
  "ффе": 3704,
  "▁жи": 3705,
  "ктив": 3706,
  "▁cre": 3707,
  "▁pre": 3708,
  "▁эффе": 3709,
  "▁times": 3710,
  "pt": 3711,
  "=0.": 3712,
  "ple": 3713,
  "мор": 3714,
  "яти": 3715,
  "▁чу": 3716,
  "▁13.": 3717,
  "▁box": 3718,
  "▁has": 3719,
  "▁pac": 3720,
  "▁ана": 3721,
  "▁part": 3722,
  "▁опти": 3723,
  "▁множе": 3724,
  "▁строке": 3725,
  "▁between": 3726,
  "▁навчання": 3727,
  "жду": 3728,
  "лся": 3729,
  "під": 3730,
  "▁ter": 3731,
  "▁'5',": 3732,
  "▁замет": 3733,
  "підходить": 3734,
  "ких": 3735,
  "лад": 3736,
  "сит": 3737,
  "▁kg": 3738,
  "fore": 3739,
  "▁сог": 3740,
  "▁есть": 3741,
  "gative": 3742,
  "▁эффектив": 3743,
  "0']": 3744,
  "uct": 3745,
  "▁ac": 3746,
  "▁дво": 3747,
  "▁полови": 3748,
  "▁элемента": 3749,
  "ачу": 3750,
  "док": 3751,
  "▁із": 3752,
  "inci": 3753,
  "▁ост": 3754,
  "▁iter": 3755,
  "agraph": 3756,
  "▁отрица": 3757,
  "▁learning": 3758,
  "▁negative": 3759,
  "▁multiplies": 3760,
  "▁96": 3761,
  "▁We": 3762,
  "▁бро": 3763,
  "▁шту": 3764,
  "ellig": 3765,
  "▁meet": 3766,
  "▁compute": 3767,
  "▁Украины": 3768,
  "▁сделать": 3769,
  "▁символа": 3770,
  "▁intellig": 3771,
  "▁iterates": 3772,
  "▁paragraph": 3773,
  "5:": 3774,
  "вод": 3775,
  "▁59": 3776,
  "▁вк": 3777,
  "▁ді": 3778,
  "ally": 3779,
  "▁['2": 3780,
  "▁кру": 3781,
  "вітла": 3782,
  "▁again": 3783,
  "▁every": 3784,
  "ственно": 3785,
  "▁остачу": 3786,
  "▁парним": 3787,
  "▁світла": 3788,
  "▁вакуумі": 3789,
  "▁ділення": 3790,
  "▁сначала": 3791,
  "▁students": 3792,
  "+5": 3793,
  "лює": 3794,
  "▁0,": 3795,
  "▁9,": 3796,
  "▁ле": 3797,
  "ings": 3798,
  "lent": 3799,
  "бити": 3800,
  "▁four": 3801,
  "▁inde": 3802,
  "▁бере": 3803,
  "▁онов": 3804,
  "▁между": 3805,
  "▁поиск": 3806,
  "▁потом": 3807,
  "▁change": 3808,
  "▁робити": 3809,
  "▁оновлює": 3810,
  "тро": 3811,
  "ures": 3812,
  "кого": 3813,
  "▁'8',": 3814,
  "▁столи": 3815,
  "inciple": 3816,
  "нарного": 3817,
  "▁большо": 3818,
  "▁наступ": 3819,
  "▁principle": 3820,
  "▁множество": 3821,
  "+4": 3822,
  "ерв": 3823,
  "сем": 3824,
  "чки": 3825,
  "▁89": 3826,
  "▁кг": 3827,
  "▁рі": 3828,
  "line": 3829,
  "▁был": 3830,
  "▁дели": 3831,
  "▁нуля": 3832,
  "▁верну": 3833,
  "▁create": 3834,
  "▁подсчета": 3835,
  "▁алгоритма": 3836,
  "7:": 3837,
  "чі": 3838,
  "▁Фі": 3839,
  "▁ск": 3840,
  "вать": 3841,
  "рати": 3842,
  "снов": 3843,
  "aming": 3844,
  "▁двох": 3845,
  "▁сума": 3846,
  "▁Кожне": 3847,
  "боначчі": 3848,
  "▁перших": 3849,
  "▁наступне": 3850,
  "▁Фібоначчі": 3851,
  "▁генерації": 3852,
  "▁эффективной": 3853,
  "2)": 3854,
  "dd": 3855,
  "ом": 3856,
  "▁ю": 3857,
  "ace": 3858,
  "лайн": 3859,
  "ового": 3860,
  "▁'4',": 3861,
  "наково": 3862,
  "▁невер": 3863,
  "▁измени": 3864,
  "▁онлайн": 3865,
  "▁берегах": 3866,
  "▁доставки": 3867,
  "▁контролем": 3868,
  "+6": 3869,
  "3)": 3870,
  "75": 3871,
  "py": 3872,
  "+10": 3873,
  "cel": 3874,
  "піє": 3875,
  "щує": 3876,
  "пією": 3877,
  "ілів": 3878,
  "▁del": 3879,
  "істру": 3880,
  "▁палі": 3881,
  "▁catch": 3882,
  "▁потім": 3883,
  "▁рядок": 3884,
  "▁spaces": 3885,
  "▁Очищує": 3886,
  "▁копією": 3887,
  "▁ошибка": 3888,
  "читається": 3889,
  "▁однаково": 3890,
  "▁пробілів": 3891,
  "▁регістру": 3892,
  "▁структура": 3893,
  "▁паліндрома": 3894,
  "▁перевернутою": 3895,
  "ify": 3896,
  "set": 3897,
  "мое": 3898,
  "теру": 3899,
  "▁уви": 3900,
  "aving": 3901,
  "▁точно": 3902,
  "▁struct": 3903,
  "▁большое": 3904,
  "▁оставляет": 3905,
  "нате": 3906,
  "сить": 3907,
  "льтра": 3908,
  "▁абзац": 3909,
  "▁ітеру": 3910,
  "▁confir": 3911,
  "льтрации": 3912,
  "▁вершину": 3913,
  "▁difference": 3914,
  "▁перемножує": 3915,
  "▁фильтрации": 3916,
  "▁ітерується": 3917,
  "▁положительные": 3918,
  "=5": 3919,
  "^3": 3920,
  "ба": 3921,
  "ans": 3922,
  "ual": 3923,
  "рой": 3924,
  "▁bot": 3925,
  "▁enc": 3926,
  "▁pur": 3927,
  "▁два": 3928,
  "Stack": 3929,
  "ideal": 3930,
  "ivery": 3931,
  "▁Стек": 3932,
  "▁вели": 3933,
  "▁стек": 3934,
  "▁Основ": 3935,
  "▁найди": 3936,
  "▁света": 3937,
  "▁packet": 3938,
  "▁вакууме": 3939,
  "▁delivery": 3940,
  "▁структурах": 3941,
  "▁confirmation": 3942,
  "▁же": 3943,
  "gree": 3944,
  "▁458": 3945,
  "▁mor": 3946,
  "щение": 3947,
  "▁одно": 3948,
  "▁point": 3949,
  "▁працю": 3950,
  "▁цифра": 3951,
  "▁решить": 3952,
  "▁станов": 3953,
  "▁mistake": 3954,
  "▁morning": 3955,
  "дим": 3956,
  "чне": 3957,
  "▁pe": 3958,
  "▁ог": 3959,
  "▁приз": 3960,
  "▁этим": 3961,
  "▁язык": 3962,
  "строен": 3963,
  "▁intro": 3964,
  "▁share": 3965,
  "▁evening": 3966,
  "чаю": 3967,
  "▁7,": 3968,
  "▁76": 3969,
  "деть": 3970,
  "▁sen": 3971,
  "▁vac": 3972,
  "▁way": 3973,
  "▁пло": 3974,
  "▁copy": 3975,
  "▁запу": 3976,
  "фортно": 3977,
  "▁вечер": 3978,
  "▁позже": 3979,
  "cellent": 3980,
  "▁теперь": 3981,
  "▁комфортно": 3982,
  "ыс": 3983,
  "▁98": 3984,
  "▁To": 3985,
  "ices": 3986,
  "pose": 3987,
  "руго": 3988,
  "▁792": 3989,
  "▁Cle": 3990,
  "▁hum": 3991,
  "▁let": 3992,
  "▁dist": 3993,
  "▁смыс": 3994,
  "▁сооб": 3995,
  "ations": 3996,
  "▁apply": 3997,
  "▁английс": 3998,
  "▁reversed": 3999,
  "▁excellent": 4000,
  "▁становить": 4001,
  "▁тон": 4002,
  "itely": 4003,
  "▁edit": 4004,
  "▁sure": 4005,
  "▁чего": 4006,
  "▁вывод": 4007,
  "▁карту": 4008,
  "▁having": 4009,
  "▁ошибку": 4010,
  "▁прибли": 4011,
  "▁clearer": 4012,
  "▁introduce": 4013,
  "▁английский": 4014,
  "уч": 4015,
  "uum": 4016,
  "дат": 4017,
  "▁фо": 4018,
  "ript": 4019,
  "лани": 4020,
  "▁hon": 4021,
  "▁try": 4022,
  "▁didn": 4023,
  "▁forg": 4024,
  "▁себе": 4025,
  "▁увер": 4026,
  "▁уста": 4027,
  "▁never": 4028,
  "▁sense": 4029,
  "▁своих": 4030,
  "▁Cleans": 4031,
  "▁vacuum": 4032,
  "▁настро": 4033,
  "подходит": 4034,
  "▁palindrome": 4035,
  "▁правильное": 4036,
  "бод": 4037,
  "нут": 4038,
  "▁71": 4039,
  "fect": 4040,
  "стях": 4041,
  "▁110": 4042,
  "▁кем": 4043,
  "iling": 4044,
  "inted": 4045,
  "вердж": 4046,
  "▁serv": 4047,
  "▁виду": 4048,
  "▁непро": 4049,
  "▁смысл": 4050,
  "▁things": 4051,
  "▁нового": 4052,
  "▁соглас": 4053,
  "▁compose": 4054,
  "▁конечно": 4055,
  "▁неверно": 4056,
  "▁ответить": 4057,
  "▁поддерживаю": 4058,
  "45": 4059,
  "cre": 4060,
  "ops": 4061,
  "▁ор": 4062,
  "▁iss": 4063,
  "▁yes": 4064,
  "▁них": 4065,
  "▁сро": 4066,
  "essed": 4067,
  "▁talk": 4068,
  "▁view": 4069,
  "▁есте": 4070,
  "▁раза": 4071,
  "▁реша": 4072,
  "▁agree": 4073,
  "▁плохо": 4074,
  "▁приве": 4075,
  "браться": 4076,
  "▁видеть": 4077,
  "▁ничего": 4078,
  "▁ошибся": 4079,
  "▁понять": 4080,
  "▁nothing": 4081,
  "▁бросить": 4082,
  "▁перевод": 4083,
  "▁поддерж": 4084,
  "▁примени": 4085,
  "▁mistakes": 4086,
  "▁practice": 4087,
  "▁показать": 4088,
  "▁согласен": 4089,
  "▁реализовать": 4090,
  "▁95": 4091,
  "▁зі": 4092,
  "oura": 4093,
  "кове": 4094,
  "ливо": 4095,
  "меши": 4096,
  "теря": 4097,
  "▁bug": 4098,
  "▁foc": 4099,
  "▁ill": 4100,
  "▁Яка": 4101,
  "▁тут": 4102,
  "▁тяж": 4103,
  "rible": 4104,
  "датні": 4105,
  "друго": 4106,
  "▁ever": 4107,
  "▁mess": 4108,
  "▁role": 4109,
  "▁soon": 4110,
  "▁крас": 4111,
  "▁прев": 4112,
  "▁роль": 4113,
  "▁утро": 4114,
  "▁філь": 4115,
  "ourage": 4116,
  "трації": 4117,
  "▁включ": 4118,
  "▁каков": 4119,
  "ilities": 4120,
  "ustrate": 4121,
  "▁script": 4122,
  "▁которы": 4123,
  "▁потеря": 4124,
  "▁совсем": 4125,
  "▁тільки": 4126,
  "▁happens": 4127,
  "▁message": 4128,
  "▁perfect": 4129,
  "▁purpose": 4130,
  "▁talking": 4131,
  "▁wording": 4132,
  "▁додатні": 4133,
  "▁думаешь": 4134,
  "▁полезен": 4135,
  "abilities": 4136,
  "▁confused": 4137,
  "▁практике": 4138,
  "▁спискове": 4139,
  "▁хорошего": 4140,
  "▁encourage": 4141,
  "▁включення": 4142,
  "▁перевести": 4143,
  "▁представь": 4144,
  "▁сообщение": 4145,
  "▁illustrate": 4146,
  "▁программой": 4147,
  "▁фільтрації": 4148,
  "▁capabilities": 4149,
  "▁отрицательно": 4150,
  "пт": 4151,
  "ят": 4152,
  "noy": 4153,
  "вее": 4154,
  "гра": 4155,
  "зво": 4156,
  "знь": 4157,
  "зус": 4158,
  "орю": 4159,
  "тач": 4160,
  "шов": 4161,
  "язы": 4162,
  "appo": 4163,
  "augh": 4164,
  "noon": 4165,
  "otiv": 4166,
  "гани": 4167,
  "иллю": 4168,
  "луги": 4169,
  "люсь": 4170,
  "мизи": 4171,
  "пока": 4172,
  "поли": 4173,
  "рипт": 4174,
  "русс": 4175,
  "тива": 4176,
  "уешь": 4177,
  "чешь": 4178,
  "ёлый": 4179,
  "▁144": 4180,
  "▁bye": 4181,
  "▁nah": 4182,
  "▁sad": 4183,
  "▁ага": 4184,
  "▁баг": 4185,
  "▁бот": 4186,
  "▁веж": 4187,
  "▁гов": 4188,
  "▁моя": 4189,
  "▁неа": 4190,
  "▁рад": 4191,
  "▁спс": 4192,
  "▁угу": 4193,
  "▁ужа": 4194,
  "▁упс": 4195,
  "▁хай": 4196,
  "arify": 4197,
  "estly": 4198,
  "imize": 4199,
  "inion": 4200,
  "noyed": 4201,
  "orous": 4202,
  "бодри": 4203,
  "важно": 4204,
  "димся": 4205,
  "ервни": 4206,
  "желюб": 4207,
  "ловно": 4208,
  "мотно": 4209,
  "няюсь": 4210,
  "сивее": 4211,
  "тался": 4212,
  "тачил": 4213,
  "▁cool": 4214,
  "▁guid": 4215,
  "▁hard": 4216,
  "▁kind": 4217,
  "▁nerv": 4218,
  "▁nope": 4219,
  "▁oops": 4220,
  "▁quit": 4221,
  "▁trou": 4222,
  "▁yeah": 4223,
  "▁коем": 4224,
  "▁своё": 4225,
  "▁твой": 4226,
  "▁юмор": 4227,
  "idence": 4228,
  "ything": 4229,
  "ромное": 4230,
  "русски": 4231,
  "язычно": 4232,
  "▁issue": 4233,
  "▁laugh": 4234,
  "▁motiv": 4235,
  "▁notes": 4236,
  "▁other": 4237,
  "▁reply": 4238,
  "▁tired": 4239,
  "▁upset": 4240,
  "▁безус": 4241,
  "▁бесит": 4242,
  "▁думаю": 4243,
  "▁жизнь": 4244,
  "▁злюсь": 4245,
  "▁какая": 4246,
  "▁круто": 4247,
  "▁напор": 4248,
  "▁пошёл": 4249,
  "▁свида": 4250,
  "▁совет": 4251,
  "▁сорри": 4252,
  "▁супер": 4253,
  "▁устал": 4254,
  "▁фокус": 4255,
  "▁хотел": 4256,
  "английс": 4257,
  "другому": 4258,
  "енность": 4259,
  "желюбно": 4260,
  "ланируй": 4261,
  "мизируй": 4262,
  "нателен": 4263,
  "полируй": 4264,
  "стрируй": 4265,
  "тивация": 4266,
  "чарован": 4267,
  "▁biling": 4268,
  "▁cheers": 4269,
  "▁indeed": 4270,
  "▁messed": 4271,
  "▁really": 4272,
  "▁trying": 4273,
  "▁береги": 4274,
  "▁говорю": 4275,
  "▁дарова": 4276,
  "▁доброе": 4277,
  "▁знаешь": 4278,
  "▁извини": 4279,
  "▁имеешь": 4280,
  "▁лёгкую": 4281,
  "▁мнение": 4282,
  "▁начать": 4283,
  "▁нервни": 4284,
  "▁органи": 4285,
  "▁отладь": 4286,
  "▁плохой": 4287,
  "▁почему": 4288,
  "▁поясни": 4289,
  "▁разбей": 4290,
  "▁скрипт": 4291,
  "▁создай": 4292,
  "▁срочно": 4293,
  "▁ужасно": 4294,
  "▁услуги": 4295,
  "▁хочешь": 4296,
  "▁честно": 4297,
  "▁чувств": 4298,
  "вертируй": 4299,
  "▁annoyed": 4300,
  "▁awesome": 4301,
  "▁clarify": 4302,
  "▁disappo": 4303,
  "▁focused": 4304,
  "▁forgive": 4305,
  "▁goodbye": 4306,
  "▁nervous": 4307,
  "▁opinion": 4308,
  "▁outline": 4309,
  "▁respond": 4310,
  "▁trouble": 4311,
  "▁worried": 4312,
  "▁вежливо": 4313,
  "▁вернусь": 4314,
  "▁вычитай": 4315,
  "▁грустно": 4316,
  "▁заметки": 4317,
  "▁неважно": 4318,
  "▁оказыва": 4319,
  "▁подкинь": 4320,
  "▁помогло": 4321,
  "▁понимаю": 4322,
  "▁приведи": 4323,
  "▁проиллю": 4324,
  "▁решаешь": 4325,
  "▁сказать": 4326,
  "▁смешное": 4327,
  "▁смешную": 4328,
  "▁составь": 4329,
  "▁тяжёлый": 4330,
  "▁юморное": 4331,
  "matically": 4332,
  "английски": 4333,
  "▁friendly": 4334,
  "▁guidance": 4335,
  "▁honestly": 4336,
  "▁humorous": 4337,
  "▁optimize": 4338,
  "▁politely": 4339,
  "▁services": 4340,
  "▁terrible": 4341,
  "▁грамотно": 4342,
  "▁дорожную": 4343,
  "▁елемента": 4344,
  "▁идеально": 4345,
  "▁короткую": 4346,
  "▁красивее": 4347,
  "▁непросто": 4348,
  "▁огромное": 4349,
  "▁подбодри": 4350,
  "▁помощник": 4351,
  "▁понятнее": 4352,
  "▁потерять": 4353,
  "▁преврати": 4354,
  "▁приветик": 4355,
  "▁рассмеши": 4356,
  "▁свидания": 4357,
  "▁увидимся": 4358,
  "▁abilities": 4359,
  "▁afternoon": 4360,
  "▁bilingual": 4361,
  "▁двуязычно": 4362,
  "▁запутался": 4363,
  "▁извиняюсь": 4364,
  "▁мотивация": 4365,
  "▁нервничаю": 4366,
  "▁отполируй": 4367,
  "▁переживаю": 4368,
  "▁поддержка": 4369,
  "▁применимо": 4370,
  "▁работаешь": 4371,
  "▁расписать": 4372,
  "▁расстроен": 4373,
  "▁спланируй": 4374,
  "▁сработает": 4375,
  "▁confidence": 4376,
  "▁everything": 4377,
  "▁frustrated": 4378,
  "▁motivation": 4379,
  "▁supportive": 4380,
  "▁безусловно": 4381,
  "▁дружелюбно": 4382,
  "▁здравствуй": 4383,
  "▁напортачил": 4384,
  "▁настроение": 4385,
  "▁оказываешь": 4386,
  "▁подсказать": 4387,
  "▁чувствуешь": 4388,
  "▁appreciated": 4389,
  "▁demonstrate": 4390,
  "▁differently": 4391,
  "▁возможности": 4392,
  "▁естественно": 4393,
  "▁конвертируй": 4394,
  "▁оптимизируй": 4395,
  "▁предложении": 4396,
  "▁представься": 4397,
  "▁признателен": 4398,
  "▁разобраться": 4399,
  "▁разочарован": 4400,
  "▁уверенность": 4401,
  "▁disappointed": 4402,
  "▁возможностях": 4403,
  "▁демонстрацию": 4404,
  "▁здравствуйте": 4405,
  "▁организовать": 4406,
  "▁отредактируй": 4407,
  "▁перефразируй": 4408,
  "▁encouragement": 4409,
  "▁grammatically": 4410,
  "▁поддерживающее": 4411,
  "▁проиллюстрируй": 4412,
  "▁профессионально": 4413,
  "▁78": 4414,
  "▁180": 4415,
  "▁ква": 4416,
  "▁кажд": 4417,
  "живать": 4418,
  "=8": 4419,
  "▁red": 4420,
  "овательно": 4421,
  "▁divisible": 4422,
  "▁150": 4423,
  "▁green": 4424,
  "60": 4425,
  "9,": 4426,
  "соб": 4427,
  "▁81": 4428,
  "чива": 4429,
  "преде": 4430,
  "їв": 4431,
  "різ": 4432,
  "▁'7',": 4433,
  "▁days": 4434,
  "▁less": 4435,
  "▁Київ": 4436,
  "▁зріз": 4437,
  "▁smaller": 4438,
  "▁швидкого": 4439,
  "30": 4440,
  "▁зе": 4441,
  "чного": 4442,
  "6,": 4443,
  "▁що": 4444,
  "▁три": 4445,
  "▁алгоритму": 4446,
  "▁58": 4447,
  "▁cont": 4448,
  "▁трет": 4449,
  "▁amount": 4450,
  "▁правила": 4451,
  "▁принцип": 4452,
  "пад": 4453,
  "трим": 4454,
  "▁class": 4455,
  "мування": 4456,
  "▁програмування": 4457,
  "ін": 4458,
  "ует": 4459,
  "/5',": 4460,
  "ital": 4461,
  "пита": 4462,
  "▁він": 4463,
  "iable": 4464,
  "▁'3',": 4465,
  "▁these": 4466,
  "▁одной": 4467,
  "▁binary": 4468,
  "ют": 4469,
  "utes": 4470,
  "▁Find": 4471,
  "сткого": 4472,
  "▁Машин": 4473,
  "▁учени": 4474,
  "cording": 4475,
  "▁comple": 4476,
  "▁capital": 4477,
  "▁85": 4478,
  "4:": 4479,
  "ollow": 4480,
  "теллек": 4481,
  "▁способ": 4482,
  "▁интеллек": 4483,
  "*0.": 4484,
  "kra": 4485,
  "/100": 4486,
  "▁Ukra": 4487,
  "▁синих": 4488,
  "▁Ukraine": 4489,
  "▁3)": 4490,
  "▁53": 4491,
  "▁67": 4492,
  "▁'11": 4493,
  "▁Знач": 4494,
  "ав": 4495,
  "ьо": 4496,
  "tem": 4497,
  "нім": 4498,
  "▁мова": 4499,
  "питання": 4500,
  "▁працює": 4501,
  "▁запитання": 4502,
  "*4": 4503,
  "4']": 4504,
  "▁108": 4505,
  "▁For": 4506,
  "▁ways": 4507,
  "▁мини": 4508,
  "▁всего": 4509,
  "▁команд": 4510,
  "▁minutes": 4511,
  "*5": 4512,
  "ек": 4513,
  "2']": 4514,
  "▁87": 4515,
  "▁отс": 4516,
  "▁прои": 4517,
  "▁белых": 4518,
  "...": 4519,
  "ird": 4520,
  "▁69": 4521,
  "коль": 4522,
  "crease": 4523,
  "▁зелен": 4524,
  "▁larger": 4525,
  "201": 4526,
  "ход": 4527,
  "щая": 4528,
  "▁201": 4529,
  "▁мин": 4530,
  "atter": 4531,
  "▁minim": 4532,
  "▁перво": 4533,
  "▁condit": 4534,
  "5,": 4535,
  "80": 4536,
  "mt": 4537,
  "▁Из": 4538,
  "/3',": 4539,
  "ница": 4540,
  "▁any": 4541,
  "елове": 4542,
  "▁обуч": 4543,
  "▁трех": 4544,
  "▁least": 4545,
  "▁meters": 4546,
  "▁Количество": 4547,
  "rib": 4548,
  "ючи": 4549,
  "▁міні": 4550,
  "▁підт": 4551,
  "ssible": 4552,
  "мальну": 4553,
  "тримку": 4554,
  "▁дозво": 4555,
  "▁Значит": 4556,
  "▁челове": 4557,
  "▁гаранти": 4558,
  "▁пакетів": 4559,
  "вердження": 4560,
  "▁гарантує": 4561,
  "▁затримку": 4562,
  "▁обучение": 4563,
  "▁мінімальну": 4564,
  "▁підтвердження": 4565,
  "dle": 4566,
  "ена": 4567,
  "него": 4568,
  "▁ока": 4569,
  "▁остан": 4570,
  "значных": 4571,
  "▁middle": 4572,
  "3,": 4573,
  "%',": 4574,
  "йти": 4575,
  "▁62": 4576,
  "▁car": 4577,
  "▁follow": 4578,
  "рем": 4579,
  "▁65": 4580,
  "▁86": 4581,
  "▁его": 4582,
  "▁five": 4583,
  "ствует": 4584,
  "▁первым": 4585,
  "ниц": 4586,
  "▁112": 4587,
  "ление": 4588,
  "▁hours": 4589,
  "▁возра": 4590,
  "▁arrays": 4591,
  "▁patter": 4592,
  "▁points": 4593,
  "▁опреде": 4594,
  "▁contain": 4595,
  "12": 4596,
  "ой": 4597,
  "ися": 4598,
  "рев": 4599,
  "▁132": 4600,
  "▁Для": 4601,
  "▁четы": 4602,
  "▁коман": 4603,
  "▁multip": 4604,
  "4,": 4605,
  "6']": 4606,
  "8']": 4607,
  "▁92": 4608,
  "▁As": 4609,
  "▁So": 4610,
  "поді": 4611,
  "▁змі": 4612,
  "▁['0,": 4613,
  "▁last": 4614,
  "▁ключ": 4615,
  "▁наві": 4616,
  "поділена": 4617,
  "▁дозволяє": 4618,
  "▁контролю": 4619,
  "▁розподілена": 4620,
  "15": 4621,
  "arge": 4622,
  "ople": 4623,
  "▁'15": 4624,
  "▁160": 4625,
  "▁сте": 4626,
  "▁разде": 4627,
  "▁получа": 4628,
  "ze": 4629,
  "иг": 4630,
  "irl": 4631,
  "▁93": 4632,
  "▁Ex": 4633,
  "▁bu": 4634,
  "тори": 4635,
  "▁['3": 4636,
  "▁Дні": 4637,
  "▁place": 4638,
  "▁Тогда": 4639,
  "▁класс": 4640,
  "▁Дніпро": 4641,
  "▁Столиця": 4642,
  "▁условию": 4643,
  "40": 4644,
  "/10": 4645,
  "ams": 4646,
  "▁91": 4647,
  "anges": 4648,
  "▁pack": 4649,
  "▁people": 4650,
  "▁метров": 4651,
  "▁element": 4652,
  "▁Therefore": 4653,
  "00.": 4654,
  "ком": 4655,
  "ука": 4656,
  "▁ty": 4657,
  "▁1/2": 4658,
  "▁шука": 4659,
  "▁'12',": 4660,
  "▁'24',": 4661,
  "▁Чтобы": 4662,
  "▁короб": 4663,
  "▁пошук": 4664,
  "▁серед": 4665,
  "10": 4666,
  "ule": 4667,
  "шим": 4668,
  "▁би": 4669,
  "ением": 4670,
  "▁girl": 4671,
  "▁виде": 4672,
  "▁квад": 4673,
  "щим": 4674,
  "otal": 4675,
  "▁odd": 4676,
  "▁ser": 4677,
  "▁пот": 4678,
  "▁Since": 4679,
  "▁large": 4680,
  "▁third": 4681,
  "▁complex": 4682,
  "▁человек": 4683,
  "▁простими": 4684,
  "▁штучного": 4685,
  "▁інтелекту": 4686,
  "mo": 4687,
  "▁doc": 4688,
  "▁means": 4689,
  "▁делится": 4690,
  "▁remaining": 4691,
  ")=": 4692,
  "▁ум": 4693,
  "ются": 4694,
  "▁105": 4695,
  "▁126": 4696,
  "▁130": 4697,
  "plain": 4698,
  "▁Time": 4699,
  "твержд": 4700,
  "▁state": 4701,
  "▁Binary": 4702,
  "▁Explain": 4703,
  "▁searches": 4704,
  "▁complexity": 4705,
  "):": 4706,
  "79": 4707,
  "aly": 4708,
  "dom": 4709,
  "ким": 4710,
  "рів": 4711,
  "ариф": 4712,
  "зько": 4713,
  "▁sys": 4714,
  "▁math": 4715,
  "▁дево": 4716,
  "▁минут": 4717,
  "▁random": 4718,
  "видкість": 4719,
  "▁97": 4720,
  "icit": 4721,
  "▁Pro": 4722,
  "ately": 4723,
  "▁'9',": 4724,
  "▁дере": 4725,
  "▁'20',": 4726,
  "▁being": 4727,
  "▁работ": 4728,
  "▁system": 4729,
  "▁искомое": 4730,
  "гово": 4731,
  "▁rule": 4732,
  "▁Total": 4733,
  "▁одного": 4734,
  "▁работы": 4735,
  "▁использ": 4736,
  "▁образом": 4737,
  "▁Probability": 4738,
  "/8": 4739,
  "ber": 4740,
  "нет": 4741,
  "▁83": 4742,
  "▁пу": 4743,
  "20',": 4744,
  "ific": 4745,
  "реди": 4746,
  "▁1/4": 4747,
  "▁mar": 4748,
  "чится": 4749,
  "▁appro": 4750,
  "ributed": 4751,
  "▁machine": 4752,
  "▁explicit": 4753,
  "▁скорость": 4754,
  "ум": 4755,
  "єш": 4756,
  "ший": 4757,
  "ofmt": 4758,
  "лізу": 4759,
  "нная": 4760,
  "ному": 4761,
  "▁tak": 4762,
  "▁кор": 4763,
  "льний": 4764,
  "▁можу": 4765,
  "▁часов": 4766,
  "▁истори": 4767,
  "▁created": 4768,
  "▁аналізу": 4769,
  "▁квадрат": 4770,
  "▁possible": 4771,
  "▁асистент": 4772,
  "▁последним": 4773,
  "*(": 4774,
  "ub": 4775,
  "ша": 4776,
  "▁?": 4777,
  "ins": 4778,
  "мах": 4779,
  "▁са": 4780,
  "▁102": 4781,
  "▁пов": 4782,
  "▁name": 4783,
  "▁всех": 4784,
  "▁коммент": 4785,
  "-3": 4786,
  "пр": 4787,
  "єк": 4788,
  "дол": 4789,
  "мый": 4790,
  "льчи": 4791,
  "чний": 4792,
  "ющая": 4793,
  "▁140": 4794,
  "▁Who": 4795,
  "▁['4": 4796,
  "▁form": 4797,
  "▁such": 4798,
  "▁цвета": 4799,
  "▁допомо": 4800,
  "▁операции": 4801,
  "▁распреде": 4802,
  "▁забезпечує": 4803,
  "пол": 4804,
  "▁73": 4805,
  "▁эк": 4806,
  "0000": 4807,
  "писа": 4808,
  "▁128": 4809,
  "▁rel": 4810,
  "▁var": 4811,
  "▁'2',": 4812,
  "▁mathe": 4813,
  "▁левой": 4814,
  "▁правой": 4815,
  "▁учеников": 4816,
  "▁3;": 4817,
  "▁их": 4818,
  "ника": 4819,
  "нном": 4820,
  "▁12,": 4821,
  "ствен": 4822,
  "ctions": 4823,
  "ческие": 4824,
  "▁color": 4825,
  "=7": 4826,
  "йд": 4827,
  "гор": 4828,
  "ина": 4829,
  "нгу": 4830,
  "▁4)": 4831,
  "▁61": 4832,
  "▁тг": 4833,
  "▁art": 4834,
  "ответ": 4835,
  "▁деся": 4836,
  "▁black": 4837,
  "▁taken": 4838,
  "▁Найди": 4839,
  "▁измен": 4840,
  "▁разница": 4841,
  "▁explicitly": 4842,
  "64": 4843,
  "8,": 4844,
  "=9": 4845,
  "ite": 4846,
  "зни": 4847,
  "пом": 4848,
  "ware": 4849,
  "наче": 4850,
  "римі": 4851,
  "ігор": 4852,
  "ійну": 4853,
  "▁133": 4854,
  "▁між": 4855,
  "зниця": 4856,
  "этому": 4857,
  "▁вебу": 4858,
  "▁коде": 4859,
  "▁чому": 4860,
  "▁files": 4861,
  "▁Скоро": 4862,
  "▁взять": 4863,
  "ificial": 4864,
  "говості": 4865,
  "правляє": 4866,
  "римінгу": 4867,
  "▁пакети": 4868,
  "▁файлів": 4869,
  "▁Найдите": 4870,
  "▁надійну": 4871,
  "▁різниця": 4872,
  "▁стримінгу": 4873,
  "▁artificial": 4874,
  "▁відправляє": 4875,
  "▁черговості": 4876,
  "▁забезпечуючи": 4877,
  "▁підтвердженням": 4878,
  "/7": 4879,
  "rol": 4880,
  "▁74": 4881,
  "▁el": 4882,
  "▁pa": 4883,
  "▁ше": 4884,
  "▁choo": 4885,
  "▁пяти": 4886,
  "▁этих": 4887,
  "кумент": 4888,
  "▁analy": 4889,
  "▁позво": 4890,
  "авление": 4891,
  "▁продол": 4892,
  "▁вершины": 4893,
  "▁Скорость": 4894,
  "▁mathematical": 4895,
  "cks": 4896,
  "бен": 4897,
  "шее": 4898,
  "▁94": 4899,
  "▁Ac": 4900,
  "▁Би": 4901,
  "▁Пу": 4902,
  "ross": 4903,
  "непр": 4904,
  "ными": 4905,
  "удал": 4906,
  "▁'10": 4907,
  "▁age": 4908,
  "▁exp": 4909,
  "▁six": 4910,
  "▁Объ": 4911,
  "ranch": 4912,
  "▁soft": 4913,
  "▁Киев": 4914,
  "▁древ": 4915,
  "▁реки": 4916,
  "▁ушёл": 4917,
  "▁learn": 4918,
  "▁predi": 4919,
  "▁Днепр": 4920,
  "▁иначе": 4921,
  "▁branch": 4922,
  "▁данные": 4923,
  "▁пришёл": 4924,
  "удаление": 4925,
  "▁Machine": 4926,
  "▁amounts": 4927,
  "▁analyze": 4928,
  "▁control": 4929,
  "▁Столица": 4930,
  "▁древний": 4931,
  "▁столица": 4932,
  "▁patterns": 4933,
  "▁software": 4934,
  "▁Основные": 4935,
  "▁половине": 4936,
  "▁принципу": 4937,
  "▁среднего": 4938,
  "добавление": 4939,
  "▁computers": 4940,
  "▁programmed": 4941,
  "▁работающая": 4942,
  "ледовательно": 4943,
  "▁intelligent": 4944,
  "▁predictions": 4945,
  "▁intelligence": 4946,
  "▁исторический": 4947,
  "нє": 4948,
  "▁4;": 4949,
  "▁бі": 4950,
  "ency": 4951,
  "боти": 4952,
  "▁ens": 4953,
  "▁ent": 4954,
  "ладні": 4955,
  "обходи": 4956,
  "▁price": 4957,
  "▁Поясни": 4958,
  "▁возвра": 4959,
  "▁мальчи": 4960,
  "▁масиві": 4961,
  "▁роботи": 4962,
  "ложность": 4963,
  "▁product": 4964,
  "▁approxim": 4965,
  "▁increase": 4966,
  "▁документ": 4967,
  "▁According": 4968,
  "▁бінарного": 4969,
  "▁відсортованому": 4970,
  "ha": 4971,
  "пы": 4972,
  "спе": 4973,
  "▁82": 4974,
  ",000": 4975,
  "▁121": 4976,
  "▁135": 4977,
  "▁new": 4978,
  "▁web": 4979,
  "мерно": 4980,
  "нарный": 4981,
  "▁второй": 4982,
  "▁файлов": 4983,
  "зительно": 4984,
  "▁changes": 4985,
  "▁package": 4986,
  "▁Объясни": 4987,
  "▁искомый": 4988,
  "▁массиве": 4989,
  "▁средним": 4990,
  "▁Бинарный": 4991,
  "▁condition": 4992,
  "▁Сложность": 4993,
  "▁бинарного": 4994,
  "▁позволяет": 4995,
  "▁продолжается": 4996,
  "▁approximately": 4997,
  "▁приблизительно": 4998,
  "▁отсортированном": 4999,
  "min": 5000,
  "пра": 5001,
  "▁2;": 5002,
  "*2*2": 5003,
  "mits": 5004,
  "коло": 5005,
  "▁24.": 5006,
  "▁den": 5007,
  "▁stre": 5008,
  "▁['2',": 5009,
  "номерно": 5010,
  "▁обеспе": 5011,
  "▁пакеты": 5012,
  "▁произв": 5013,
  "▁options": 5014,
  "▁минималь": 5015,
  "84": 5016,
  "5']": 5017,
  "res": 5018,
  "дов": 5019,
  "alle": 5020,
  "вели": 5021,
  "стеж": 5022,
  "тися": 5023,
  "щать": 5024,
  "▁пре": 5025,
  "▁хот": 5026,
  "працю": 5027,
  "рібен": 5028,
  "▁1000": 5029,
  "▁city": 5030,
  "▁cost": 5031,
  "▁roll": 5032,
  "▁коді": 5033,
  "▁спів": 5034,
  "▁Пусть": 5035,
  "▁зміни": 5036,
  "рования": 5037,
  "▁series": 5038,
  "▁навіщо": 5039,
  "▁minimal": 5040,
  "▁возраст": 5041,
  "▁відстеж": 5042,
  "▁команді": 5043,
  "працювати": 5044,
  "▁контроля": 5045,
  "▁потрібен": 5046,
  "▁structure": 5047,
  "▁закономерно": 5048,
  "▁повертатися": 5049,
  "▁відстежувати": 5050,
  "▁співпрацювати": 5051,
  "90": 5052,
  "=12": 5053,
  "мов": 5054,
  "ideo": 5055,
  "lock": 5056,
  "mine": 5057,
  "лить": 5058,
  "▁lat": 5059,
  "▁Кто": 5060,
  "около": 5061,
  "чивая": 5062,
  "▁boys": 5063,
  "▁they": 5064,
  "▁video": 5065,
  "▁gaming": 5066,
  "▁ensures": 5067,
  "▁latency": 5068,
  "▁packets": 5069,
  "▁whereas": 5070,
  "▁команде": 5071,
  "▁пакетов": 5072,
  "▁ordering": 5073,
  "▁reliable": 5074,
  "▁программ": 5075,
  "▁streaming": 5076,
  "▁transmits": 5077,
  "▁изменения": 5078,
  "%.": 5079,
  "се": 5080,
  "лог": 5081,
  "▁(5": 5082,
  "▁5?": 5083,
  "▁мы": 5084,
  "лизи": 5085,
  "▁пам": 5086,
  "ричне": 5087,
  "▁істо": 5088,
  "▁After": 5089,
  "▁Какое": 5090,
  "▁нечет": 5091,
  "▁річки": 5092,
  "▁величне": 5093,
  "▁столиця": 5094,
  "▁історичне": 5095,
  "лё": 5096,
  "зно": 5097,
  "игр": 5098,
  "лка": 5099,
  "тив": 5100,
  "ages": 5101,
  "▁154": 5102,
  "▁['5": 5103,
  "▁['6": 5104,
  "▁зад": 5105,
  "льных": 5106,
  "▁type": 5107,
  "▁стре": 5108,
  "щаться": 5109,
  "▁'18',": 5110,
  "▁отсле": 5111,
  "▁проек": 5112,
  "▁versions": 5113,
  "▁distributed": 5114,
  "▁гарантирует": 5115,
  ",79": 5116,
  "-1)": 5117,
  "458": 5118,
  "led": 5119,
  "ons": 5120,
  "ote": 5121,
  "▁Те": 5122,
  "cted": 5123,
  "рого": 5124,
  "стоя": 5125,
  "▁'1/": 5126,
  "▁his": 5127,
  "▁she": 5128,
  "▁Так": 5129,
  ",792,": 5130,
  "about": 5131,
  "ержку": 5132,
  "остри": 5133,
  "ёжную": 5134,
  "▁play": 5135,
  "▁веба": 5136,
  "лённая": 5137,
  "▁since": 5138,
  "▁teams": 5139,
  ",792,458": 5140,
  "остримов": 5141,
  "▁300,000": 5142,
  "▁порядка": 5143,
  "▁соответ": 5144,
  "▁задержку": 5145,
  "▁надёжную": 5146,
  "▁following": 5147,
  "▁подтвержд": 5148,
  "▁operations": 5149,
  "▁отправляет": 5150,
  "▁предыдущим": 5151,
  "▁299,792,458": 5152,
  "▁минимальную": 5153,
  "▁обеспечивая": 5154,
  "▁видеостримов": 5155,
  "▁Следовательно": 5156,
  "▁подтверждением": 5157,
  "ov": 5158,
  "▁1/": 5159,
  "▁Ал": 5160,
  "▁ва": 5161,
  "ress": 5162,
  "ting": 5163,
  "▁(10": 5164,
  "▁нес": 5165,
  "▁уча": 5166,
  "istor": 5167,
  "▁coll": 5168,
  "allest": 5169,
  "▁среди": 5170,
  "▁allows": 5171,
  "▁histor": 5172,
  "▁версий": 5173,
  "▁каждый": 5174,
  "▁rolling": 5175,
  "▁версиям": 5176,
  "▁проектом": 5177,
  "▁statement": 5178,
  "▁отслеживать": 5179,
  "▁возвращаться": 5180,
  "▁распределённая": 5181,
  "▁,": 5182,
  "▁go": 5183,
  "▁пі": 5184,
  "abor": 5185,
  "move": 5186,
  "дода": 5187,
  "йшов": 5188,
  "лузь": 5189,
  "нози": 5190,
  "ірно": 5191,
  "▁114": 5192,
  "▁fac": 5193,
  "▁жор": 5194,
  "сягах": 5195,
  "ходити": 5196,
  "▁пішов": 5197,
  "▁тогда": 5198,
  "номірно": 5199,
  "▁across": 5200,
  "▁возмож": 5201,
  "▁галузь": 5202,
  "▁першим": 5203,
  "▁Машинне": 5204,
  "▁Основні": 5205,
  "▁великих": 5206,
  "▁вершини": 5207,
  "▁машинне": 5208,
  "▁обсягах": 5209,
  "▁прийшов": 5210,
  "видалення": 5211,
  "додавання": 5212,
  "▁smallest": 5213,
  "▁операції": 5214,
  "▁останнім": 5215,
  "▁прогнози": 5216,
  "номірності": 5217,
  "▁вариантов": 5218,
  "▁жорсткого": 5219,
  "▁знаходити": 5220,
  "▁принципом": 5221,
  "▁structures": 5222,
  "▁навчається": 5223,
  "▁закономірності": 5224,
  "ему": 5225,
  "лич": 5226,
  "rint": 5227,
  "аков": 5228,
  "мера": 5229,
  "▁11,": 5230,
  "▁12;": 5231,
  "▁153": 5232,
  "▁162": 5233,
  "▁arr": 5234,
  "▁pass": 5235,
  "▁врем": 5236,
  "▁дней": 5237,
  "▁'10',": 5238,
  "▁после": 5239,
  "▁tracks": 5240,
  "▁должно": 5241,
  "ilitates": 5242,
  "обходимо": 5243,
  "aboration": 5244,
  "лизировать": 5245,
  "▁facilitates": 5246,
  "▁collaboration": 5247,
  "*6": 5248,
  "85": 5249,
  "95": 5250,
  "so": 5251,
  "▁Са": 5252,
  "▁152": 5253,
  "▁Чис": 5254,
  "ников": 5255,
  "▁girls": 5256,
  "туальный": 5257,
  "▁больших": 5258,
  "▁ассистент": 5259,
  "▁комментари": 5260,
  "▁отлаживать": 5261,
  "▁программный": 5262,
  "▁анализировать": 5263,
  "▁математические": 5264,
  "32": 5265,
  "ты": 5266,
  "=10": 5267,
  "bra": 5268,
  "▁1;": 5269,
  "▁ди": 5270,
  "iver": 5271,
  "▁еще": 5272,
  "льные": 5273,
  "▁shot": 5274,
  "значим": 5275,
  "ставим": 5276,
  "▁['3',": 5277,
  "▁карто": 5278,
  "▁этого": 5279,
  "близько": 5280,
  "▁метрів": 5281,
  "▁первой": 5282,
  "▁приблизно": 5283,
  "▁швидкість": 5284,
  "cl": 5285,
  "ге": 5286,
  "вто": 5287,
  "ред": 5288,
  "▁4?": 5289,
  "ands": 5290,
  "ered": 5291,
  "мети": 5292,
  "▁'30": 5293,
  "▁170": 5294,
  "▁hit": 5295,
  "gebra": 5296,
  "имень": 5297,
  "▁draw": 5298,
  "▁окаж": 5299,
  "▁шара": 5300,
  "▁этом": 5301,
  "▁други": 5302,
  "▁primar": 5303,
  "▁выстре": 5304,
  "▁которых": 5305,
  "▁произвед": 5306,
  "со": 5307,
  "ены": 5308,
  "▁8?": 5309,
  "▁лю": 5310,
  "▁(34": 5311,
  "▁cub": 5312,
  "▁ток": 5313,
  "замен": 5314,
  "▁dice": 5315,
  "▁['4',": 5316,
  "▁проце": 5317,
  "▁треть": 5318,
  "▁choose": 5319,
  "▁начина": 5320,
  "▁учится": 5321,
  "арифмети": 5322,
  "▁primary": 5323,
  "▁зеленых": 5324,
  "▁коробке": 5325,
  "▁которые": 5326,
  "▁красных": 5327,
  "▁экзамен": 5328,
  "мирования": 5329,
  "▁operating": 5330,
  "4)": 5331,
  "70": 5332,
  "ek": 5333,
  "add": 5334,
  "лки": 5335,
  "▁2?": 5336,
  "▁3?": 5337,
  "ames": 5338,
  "тура": 5339,
  "умма": 5340,
  "▁...": 5341,
  "▁104": 5342,
  "▁13,": 5343,
  "▁14?": 5344,
  "▁156": 5345,
  "▁18,": 5346,
  "remove": 5347,
  "▁Stack": 5348,
  "▁stack": 5349,
  "▁токен": 5350,
  "72": 5351,
  "сы": 5352,
  "ха": 5353,
  "їн": 5354,
  ".',": 5355,
  "nip": 5356,
  "yiv": 5357,
  "ати": 5358,
  "лій": 5359,
  "чні": 5360,
  "шки": 5361,
  "іда": 5362,
  "▁6?": 5363,
  "▁зв": 5364,
  "мієш": 5365,
  "укра": 5366,
  "ьома": 5367,
  "▁'13": 5368,
  "▁136": 5369,
  "▁18?": 5370,
  "▁198": 5371,
  "▁19?": 5372,
  "▁228": 5373,
  "▁45.": 5374,
  "▁Хто": 5375,
  "▁анг": 5376,
  "▁еди": 5377,
  "nipro": 5378,
  "uated": 5379,
  "ідати": 5380,
  "▁'6']": 5381,
  "▁Kyiv": 5382,
  "▁дані": 5383,
  "лагодж": 5384,
  "україн": 5385,
  "▁River": 5386,
  "▁posit": 5387,
  "▁their": 5388,
  "▁вмієш": 5389,
  "▁росій": 5390,
  "язувати": 5391,
  "▁Dnipro": 5392,
  "▁англій": 5393,
  "▁відпов": 5394,
  "▁мовами": 5395,
  "▁писати": 5396,
  "▁раздел": 5397,
  "▁трьома": 5398,
  "туальний": 5399,
  "▁historic": 5400,
  "▁situated": 5401,
  "▁налагодж": 5402,
  "українською": 5403,
  "▁програмний": 5404,
  "▁російською": 5405,
  "▁аналізувати": 5406,
  "▁англійською": 5407,
  "▁відповідати": 5408,
  "▁математичні": 5409,
  "▁налагоджувати": 5410,
  "▁інтелектуальний": 5411,
  "(2": 5412,
  "7,": 5413,
  "he": 5414,
  "arr": 5415,
  "ced": 5416,
  "ten": 5417,
  "еть": 5418,
  "stit": 5419,
  "лись": 5420,
  "нима": 5421,
  "нуть": 5422,
  "▁11?": 5423,
  "▁125": 5424,
  "▁12?": 5425,
  "▁сод": 5426,
  "▁поми": 5427,
  "▁тран": 5428,
  "▁largest": 5429,
  "▁способов": 5430,
  "арифметичес": 5431,
  "*8": 5432,
  "av": 5433,
  "ts": 5434,
  "су": 5435,
  "▁І": 5436,
  "1']": 5437,
  "mid": 5438,
  "бок": 5439,
  "гти": 5440,
  "ман": 5441,
  "мий": 5442,
  "ної": 5443,
  "ого": 5444,
  "тий": 5445,
  "шек": 5446,
  "єкт": 5447,
  "/7',": 5448,
  "зале": 5449,
  "ська": 5450,
  "шику": 5451,
  "ятий": 5452,
  "ієнт": 5453,
  "▁137": 5454,
  "▁вме": 5455,
  "▁сьо": 5456,
  "▁шар": 5457,
  "umber": 5458,
  "ляції": 5459,
  "ствую": 5460,
  "▁also": 5461,
  "▁бага": 5462,
  "▁вико": 5463,
  "▁купи": 5464,
  "▁одну": 5465,
  "▁'15',": 5466,
  "▁gofmt": 5467,
  "▁випад": 5468,
  "▁исход": 5469,
  "▁увели": 5470,
  "▁denote": 5471,
  "▁классе": 5472,
  "▁кошику": 5473,
  "▁написа": 5474,
  "▁справи": 5475,
  "кусствен": 5476,
  "▁перемен": 5477,
  "▁токенів": 5478,
  "▁процесор": 5479,
  "▁обчислень": 5480,
  "▁користувач": 5481,
  "▁необходимо": 5482,
  "5)": 5483,
  "ий": 5484,
  "ved": 5485,
  "няя": 5486,
  "щие": 5487,
  "▁4!": 5488,
  "cess": 5489,
  "ound": 5490,
  "▁13?": 5491,
  "▁14,": 5492,
  "▁176": 5493,
  "▁end": 5494,
  "▁попа": 5495,
  "▁parts": 5496,
  "▁После": 5497,
  "▁Таким": 5498,
  "казания": 5499,
  "▁letters": 5500,
  "▁наимень": 5501,
  "▁искусствен": 5502,
  "▁закономерности": 5503,
  "ai": 5504,
  "-0.": 5505,
  "bin": 5506,
  "ибо": 5507,
  "ций": 5508,
  "▁-1": 5509,
  "▁5;": 5510,
  "▁7?": 5511,
  "▁9^": 5512,
  "▁ap": 5513,
  "▁sw": 5514,
  "ines": 5515,
  "ёмах": 5516,
  "▁15?": 5517,
  "▁216": 5518,
  "▁squ": 5519,
  "▁дет": 5520,
  "▁сту": 5521,
  "▁суще": 5522,
  "▁['6',": 5523,
  "▁deter": 5524,
  "▁предс": 5525,
  "▁различ": 5526,
  "▁comment": 5527,
  "▁объёмах": 5528,
  "▁multiple": 5529,
  "▁Машинное": 5530,
  "▁жесткого": 5531,
  "▁машинное": 5532,
  "▁находить": 5533,
  "▁интеллекта": 5534,
  "▁предсказания": 5535,
  "▁искусственного": 5536,
  "-5": 5537,
  "87": 5538,
  "iy": 5539,
  "лет": 5540,
  "rees": 5541,
  "▁190": 5542,
  "▁220": 5543,
  "ellow": 5544,
  "кольку": 5545,
  "▁hands": 5546,
  "▁units": 5547,
  "▁стоит": 5548,
  "▁каждой": 5549,
  "▁express": 5550,
  "▁окажется": 5551,
  "+12": 5552,
  "=15": 5553,
  "нош": 5554,
  "▁6;": 5555,
  "ства": 5556,
  "▁'24": 5557,
  "▁'25": 5558,
  "▁1/3": 5559,
  "▁tic": 5560,
  "ather": 5561,
  "▁'5']": 5562,
  "▁Thus": 5563,
  "▁авто": 5564,
  "▁шари": 5565,
  "▁['1',": 5566,
  "▁['5',": 5567,
  "▁trees": 5568,
  "▁'120',": 5569,
  "▁letter": 5570,
  "▁ticket": 5571,
  "▁использу": 5572,
  "+9": 5573,
  "ее": 5574,
  "/12": 5575,
  "▁5)": 5576,
  "▁ad": 5577,
  "▁Бо": 5578,
  "▁пе": 5579,
  "▁сы": 5580,
  "▁15,": 5581,
  "▁Обо": 5582,
  "▁нас": 5583,
  "▁сем": 5584,
  "▁'1/2": 5585,
  "▁sing": 5586,
  "▁Общее": 5587,
  "▁случай": 5588,
  "▁которое": 5589,
  "▁первого": 5590,
  "▁четырех": 5591,
  "▁contains": 5592,
  "▁randomly": 5593,
  "▁результат": 5594,
  "▁арифметичес": 5595,
  "%,": 5596,
  "89": 5597,
  "igh": 5598,
  "имо": 5599,
  "▁8;": 5600,
  "▁At": 5601,
  "00']": 5602,
  "▁16?": 5603,
  "▁17?": 5604,
  "▁Про": 5605,
  "▁две": 5606,
  "▁дли": 5607,
  "▁нау": 5608,
  "▁цел": 5609,
  "▁'5/1": 5610,
  "▁cards": 5611,
  "▁Сумма": 5612,
  "▁Число": 5613,
  "stitute": 5614,
  "▁числом": 5615,
  "▁variable": 5616,
  "▁Обозначим": 5617,
  "com": 5618,
  "щий": 5619,
  "▁pi": 5620,
  "▁pu": 5621,
  "▁Бі": 5622,
  "ants": 5623,
  "olat": 5624,
  "акше": 5625,
  "▁171": 5626,
  "▁204": 5627,
  "▁put": 5628,
  "▁лів": 5629,
  "лении": 5630,
  "▁cons": 5631,
  "▁Якщо": 5632,
  "довжує": 5633,
  "нарний": 5634,
  "▁лівій": 5635,
  "▁менее": 5636,
  "▁менше": 5637,
  "▁остат": 5638,
  "▁сторо": 5639,
  "▁combin": 5640,
  "▁yellow": 5641,
  "▁правій": 5642,
  "▁шукане": 5643,
  "▁інакше": 5644,
  "ладність": 5645,
  "▁середнє": 5646,
  "▁шуканий": 5647,
  "▁distance": 5648,
  "▁Бінарний": 5649,
  "▁половині": 5650,
  "▁получаем": 5651,
  "▁середнім": 5652,
  "довжується": 5653,
  "▁Складність": 5654,
  "▁продовжується": 5655,
  "*7": 5656,
  "36": 5657,
  "amp": 5658,
  "dre": 5659,
  "han": 5660,
  "дут": 5661,
  "ену": 5662,
  "▁Ай": 5663,
  "=100": 5664,
  "илет": 5665,
  "▁(25": 5666,
  "▁10?": 5667,
  "▁131": 5668,
  "▁143": 5669,
  "▁168": 5670,
  "▁186": 5671,
  "▁240": 5672,
  "▁buy": 5673,
  "ither": 5674,
  "▁'1/1": 5675,
  "пример": 5676,
  "▁among": 5677,
  "▁twice": 5678,
  "▁таких": 5679,
  "значное": 5680,
  "▁weight": 5681,
  "▁единиц": 5682,
  "чивается": 5683,
  "▁функции": 5684,
  "▁получить": 5685,
  "01": 5686,
  "24": 5687,
  "76": 5688,
  "97": 5689,
  "3']": 5690,
  "ula": 5691,
  "▁9?": 5692,
  "asha": 5693,
  "roup": 5694,
  "дает": 5695,
  "▁103": 5696,
  "▁111": 5697,
  "▁119": 5698,
  "▁182": 5699,
  "▁add": 5700,
  "▁ass": 5701,
  "▁бра": 5702,
  "▁они": 5703,
  "▁meth": 5704,
  "▁выпа": 5705,
  "▁одна": 5706,
  "▁пози": 5707,
  "▁given": 5708,
  "▁Всего": 5709,
  "▁билет": 5710,
  "▁наибо": 5711,
  "▁найти": 5712,
  "▁оказа": 5713,
  "▁также": 5714,
  "▁должны": 5715,
  "▁натура": 5716,
  "▁мальчиков": 5717,
  "▁способами": 5718,
  "▁существует": 5719,
  ")/": 5720,
  "21": 5721,
  "LL": 5722,
  "the": 5723,
  "uts": 5724,
  "дия": 5725,
  "▁By": 5726,
  "▁иг": 5727,
  "▁'36": 5728,
  "▁210": 5729,
  "▁400": 5730,
  "▁жел": 5731,
  "шихся": 5732,
  "▁'9']": 5733,
  "▁From": 5734,
  "▁ones": 5735,
  "▁были": 5736,
  "▁'11',": 5737,
  "▁'13',": 5738,
  "▁group": 5739,
  "▁older": 5740,
  "▁очков": 5741,
  "▁partic": 5742,
  "▁четвер": 5743,
  "▁comments": 5744,
  "*9": 5745,
  "33": 5746,
  "kg": 5747,
  "ank": 5748,
  "ска": 5749,
  "той": 5750,
  "ives": 5751,
  "овой": 5752,
  "▁101": 5753,
  "▁30.": 5754,
  "▁720": 5755,
  "▁bou": 5756,
  "▁win": 5757,
  "▁груп": 5758,
  "▁шести": 5759,
  "▁оставшихся": 5760,
  "22": 5761,
  "44": 5762,
  "65": 5763,
  "KK": 5764,
  "sh": 5765,
  "ал": 5766,
  "▁.": 5767,
  "9']": 5768,
  "gth": 5769,
  "▁9;": 5770,
  "▁му": 5771,
  "ению": 5772,
  "▁20?": 5773,
  "▁зап": 5774,
  "▁ней": 5775,
  "+8+10": 5776,
  "ument": 5777,
  "▁'8']": 5778,
  "▁rest": 5779,
  "▁окан": 5780,
  "▁прис": 5781,
  "▁фрук": 5782,
  "▁Bolat": 5783,
  "▁дерев": 5784,
  "▁монет": 5785,
  "▁разно": 5786,
  "▁minute": 5787,
  "▁расстоя": 5788,
  "▁Например": 5789,
  "▁according": 5790,
  "-4": 5791,
  ".)": 5792,
  "ID": 5793,
  "^1": 5794,
  "cc": 5795,
  "=20": 5796,
  "=24": 5797,
  "att": 5798,
  "not": 5799,
  "ене": 5800,
  "жат": 5801,
  "кол": 5802,
  "пан": 5803,
  "тых": 5804,
  "▁118": 5805,
  "▁209": 5806,
  "▁bro": 5807,
  "▁sch": 5808,
  "нения": 5809,
  "▁Бола": 5810,
  "▁года": 5811,
  "▁игра": 5812,
  "▁либо": 5813,
  "▁степ": 5814,
  "▁умно": 5815,
  "▁apart": 5816,
  "▁boxes": 5817,
  "▁coins": 5818,
  "▁pages": 5819,
  "▁single": 5820,
  "▁formula": 5821,
  "▁written": 5822,
  "▁условия": 5823,
  "▁документа": 5824,
  "▁произведение": 5825,
  "/21": 5826,
  "7']": 5827,
  "диа": 5828,
  "лим": 5829,
  "▁Sp": 5830,
  "▁ge": 5831,
  "▁ры": 5832,
  "25',": 5833,
  "<201": 5834,
  "iyar": 5835,
  "omet": 5836,
  "rand": 5837,
  "копо": 5838,
  "▁106": 5839,
  "▁109": 5840,
  "▁165": 5841,
  "▁23?": 5842,
  "▁250": 5843,
  "▁360": 5844,
  "▁beg": 5845,
  "▁lit": 5846,
  "edian": 5847,
  "естно": 5848,
  "▁book": 5849,
  "▁else": 5850,
  "▁pair": 5851,
  "▁зада": 5852,
  "▁ряда": 5853,
  "▁хотя": 5854,
  "verage": 5855,
  "копожа": 5856,
  "▁'30',": 5857,
  "▁'64',": 5858,
  "▁могут": 5859,
  "▁сумме": 5860,
  "ставить": 5861,
  "▁Number": 5862,
  "▁length": 5863,
  "▁дерева": 5864,
  "▁старше": 5865,
  "▁initial": 5866,
  "▁девочек": 5867,
  "▁поэтому": 5868,
  "▁particip": 5869,
  "▁selected": 5870,
  "▁рукопожа": 5871,
  "▁determine": 5872,
  "+7": 5873,
  "-8": 5874,
  "48": 5875,
  "AM": 5876,
  "va": 5877,
  "яв": 5878,
  ")/2": 5879,
  "*10": 5880,
  "ana": 5881,
  "год": 5882,
  "сов": 5883,
  "тия": 5884,
  "▁(6": 5885,
  "▁(8": 5886,
  "▁6)": 5887,
  "▁sa": 5888,
  "ored": 5889,
  "▁0.0": 5890,
  "▁145": 5891,
  "▁56)": 5892,
  "▁Now": 5893,
  "▁son": 5894,
  "▁бал": 5895,
  "▁куб": 5896,
  "тного": 5897,
  "▁ends": 5898,
  "▁side": 5899,
  "▁year": 5900,
  "▁youn": 5901,
  "▁любо": 5902,
  "▁нача": 5903,
  "▁пара": 5904,
  "gether": 5905,
  "▁выпол": 5906,
  "▁можем": 5907,
  "▁цифру": 5908,
  "▁деревь": 5909,
  "▁Поэтому": 5910,
  "▁второго": 5911,
  "^4": 5912,
  "^5": 5913,
  "io": 5914,
  "ео": 5915,
  "ool": 5916,
  "put": 5917,
  "гад": 5918,
  "▁Во": 5919,
  "oney": 5920,
  "дент": 5921,
  "зова": 5922,
  "йдем": 5923,
  "нику": 5924,
  "▁0.8": 5925,
  "▁117": 5926,
  "▁124": 5927,
  "▁161": 5928,
  "▁192": 5929,
  "▁['7": 5930,
  "▁gra": 5931,
  "▁тех": 5932,
  "▁'1',": 5933,
  "▁'7']": 5934,
  "▁used": 5935,
  "▁мето": 5936,
  "▁неде": 5937,
  "▁'25',": 5938,
  "▁'36',": 5939,
  "▁'48',": 5940,
  "▁slice": 5941,
  "▁будут": 5942,
  "▁отсут": 5943,
  "▁распо": 5944,
  "▁содер": 5945,
  "▁точек": 5946,
  "▁'2/5',": 5947,
  "▁necess": 5948,
  "▁Опреде": 5949,
  "▁Теперь": 5950,
  "▁вместе": 5951,
  "▁четыре": 5952,
  "▁average": 5953,
  "▁because": 5954,
  "▁девочки": 5955,
  "▁делении": 5956,
  "▁стрелка": 5957,
  "▁together": 5958,
  "▁последняя": 5959,
  "▁арифметическое": 5960,
  "31": 5961,
  "вы": 5962,
  "ёх": 5963,
  "^2.": 5964,
  "ric": 5965,
  "мат": 5966,
  "нем": 5967,
  "▁(9": 5968,
  "▁Ба": 5969,
  "▁Бу": 5970,
  "ches": 5971,
  "личе": 5972,
  "▁166": 5973,
  "▁bir": 5974,
  "▁fif": 5975,
  "▁her": 5976,
  "▁pow": 5977,
  "▁Кар": 5978,
  "▁люб": 5979,
  "▁обо": 5980,
  "ented": 5981,
  "класс": 5982,
  "▁cube": 5983,
  "▁read": 5984,
  "▁груш": 5985,
  "▁меся": 5986,
  "ention": 5987,
  "▁Which": 5988,
  "▁match": 5989,
  "▁weigh": 5990,
  "▁получ": 5991,
  "▁прямо": 5992,
  "▁bought": 5993,
  "▁количе": 5994,
  "▁Algebra": 5995,
  "▁наиболь": 5996,
  "▁студент": 5997,
  "▁calculate": 5998,
  "▁различных": 5999,
  "▁соответствует": 6000,
  "+(": 6001,
  "35": 6002,
  "77": 6003,
  "92": 6004,
  "ус": 6005,
  "рти": 6006,
  "сса": 6007,
  "▁5!": 6008,
  "▁cm": 6009,
  "onth": 6010,
  "логи": 6011,
  "▁'50": 6012,
  "▁(36": 6013,
  "▁1/5": 6014,
  "▁115": 6015,
  "▁16,": 6016,
  "▁187": 6017,
  "▁19,": 6018,
  "▁21?": 6019,
  "▁22?": 6020,
  "▁34.": 6021,
  "▁ang": 6022,
  "▁эта": 6023,
  "duced": 6024,
  "▁pres": 6025,
  "▁took": 6026,
  "▁часа": 6027,
  "▁'32',": 6028,
  "▁['0',": 6029,
  "▁fifth": 6030,
  "▁month": 6031,
  "▁shots": 6032,
  "▁костя": 6033,
  "▁format": 6034,
  "▁кварти": 6035,
  "▁наугад": 6036,
  "▁первом": 6037,
  "▁повтор": 6038,
  "▁minimum": 6039,
  "▁наименьшее": 6040,
  "▁комментарии": 6041,
  "37": 6042,
  "pi": 6043,
  "ск": 6044,
  "ур": 6045,
  "яч": 6046,
  "60.": 6047,
  "uck": 6048,
  "ачи": 6049,
  "бер": 6050,
  "дая": 6051,
  "нии": 6052,
  "шие": 6053,
  "▁Ka": 6054,
  "▁ла": 6055,
  "/4']": 6056,
  "ante": 6057,
  "кими": 6058,
  "▁(11": 6059,
  "▁138": 6060,
  "▁146": 6061,
  "▁147": 6062,
  "▁22.": 6063,
  "▁23.": 6064,
  "▁252": 6065,
  "▁264": 6066,
  "▁500": 6067,
  "▁600": 6068,
  "▁row": 6069,
  "▁бли": 6070,
  "метри": 6071,
  "▁guar": 6072,
  "▁long": 6073,
  "▁вось": 6074,
  "▁поку": 6075,
  "respon": 6076,
  "▁known": 6077,
  "▁буквы": 6078,
  "▁время": 6079,
  "▁месте": 6080,
  "▁номер": 6081,
  "▁первый": 6082,
  "▁списки": 6083,
  "▁цифрой": 6084,
  "▁divisor": 6085,
  "▁guarante": 6086,
  "▁вероятно": 6087,
  "▁correspon": 6088,
  "▁expression": 6089,
  "▁получается": 6090,
  "55": 6091,
  "▁j": 6092,
  "*(1": 6093,
  "/7.": 6094,
  "=21": 6095,
  "=6.": 6096,
  "The": 6097,
  "дек": 6098,
  "змо": 6099,
  "▁пя": 6100,
  "*100": 6101,
  "/6=1": 6102,
  "лась": 6103,
  "меня": 6104,
  "того": 6105,
  "▁148": 6106,
  "▁158": 6107,
  "▁169": 6108,
  "▁18:": 6109,
  "▁And": 6110,
  "▁bec": 6111,
  "▁cut": 6112,
  "ентра": 6113,
  "ходим": 6114,
  "▁'7/1": 6115,
  "▁100%": 6116,
  "▁chil": 6117,
  "▁exam": 6118,
  "▁swit": 6119,
  "▁Оста": 6120,
  "новрем": 6121,
  "▁'16',": 6122,
  "▁'21',": 6123,
  "▁floor": 6124,
  "▁уника": 6125,
  "▁travel": 6126,
  "▁задача": 6127,
  "▁['1/3',": 6128,
  "▁значения": 6129,
  "▁одноврем": 6130,
  "▁Поскольку": 6131,
  "▁возможных": 6132,
  "08": 6133,
  "fe": 6134,
  "-2)": 6135,
  "пыт": 6136,
  "▁(7": 6137,
  "▁NO": 6138,
  "80',": 6139,
  "anat": 6140,
  "ases": 6141,
  "dren": 6142,
  "eces": 6143,
  "грал": 6144,
  "личи": 6145,
  "лока": 6146,
  "▁(45": 6147,
  "▁129": 6148,
  "▁173": 6149,
  "▁19)": 6150,
  "▁2/3": 6151,
  "▁24?": 6152,
  "▁37.": 6153,
  "▁40.": 6154,
  "▁48.": 6155,
  "▁480": 6156,
  "▁occ": 6157,
  "▁tri": 6158,
  "▁Пер": 6159,
  "▁гео": 6160,
  "▁Read": 6161,
  "▁When": 6162,
  "▁mark": 6163,
  "▁nuts": 6164,
  "▁repe": 6165,
  "▁sequ": 6166,
  "▁shoo": 6167,
  "▁Сред": 6168,
  "▁мере": 6169,
  "▁цикл": 6170,
  "▁ident": 6171,
  "▁knuck": 6172,
  "▁print": 6173,
  "▁участ": 6174,
  "▁output": 6175,
  "▁pieces": 6176,
  "▁switch": 6177,
  "начально": 6178,
  "ставляем": 6179,
  "▁остатка": 6180,
  "▁стороны": 6181,
  "▁increased": 6182,
  "▁находится": 6183,
  "▁combinations": 6184,
  "26": 6185,
  "34": 6186,
  "42": 6187,
  "ян": 6188,
  ")=1": 6189,
  "/5.": 6190,
  "=30": 6191,
  "=50": 6192,
  "erp": 6193,
  "par": 6194,
  "ume": 6195,
  "ема": 6196,
  "кап": 6197,
  "сен": 6198,
  "тру": 6199,
  "▁7;": 6200,
  "▁9)": 6201,
  "▁Ст": 6202,
  "*2*1": 6203,
  "9999": 6204,
  "eter": 6205,
  "nted": 6206,
  "клад": 6207,
  "льту": 6208,
  "стий": 6209,
  "▁'20": 6210,
  "▁(16": 6211,
  "▁(46": 6212,
  "▁1/1": 6213,
  "▁21.": 6214,
  "▁211": 6215,
  "▁25.": 6216,
  "▁340": 6217,
  "▁50.": 6218,
  "▁Ask": 6219,
  "▁non": 6220,
  "▁obt": 6221,
  "▁зав": 6222,
  "▁ссы": 6223,
  "▁тре": 6224,
  "▁2500": 6225,
  "▁appe": 6226,
  "▁call": 6227,
  "▁fall": 6228,
  "▁over": 6229,
  "▁tens": 6230,
  "▁кода": 6231,
  "▁типа": 6232,
  "ective": 6233,
  "нструк": 6234,
  "читыва": 6235,
  "▁'14']": 6236,
  "▁'28',": 6237,
  "▁Deter": 6238,
  "▁angle": 6239,
  "▁белые": 6240,
  "▁ватру": 6241,
  "▁десят": 6242,
  "▁кубик": 6243,
  "▁места": 6244,
  "▁пройд": 6245,
  "▁синие": 6246,
  "мальное": 6247,
  "▁'1/6',": 6248,
  "▁before": 6249,
  "▁either": 6250,
  "▁handsh": 6251,
  "▁method": 6252,
  "▁obtain": 6253,
  "▁school": 6254,
  "▁пакета": 6255,
  "▁черных": 6256,
  "▁counted": 6257,
  "▁зеленые": 6258,
  "▁children": 6259,
  "▁multiply": 6260,
  "▁одинаков": 6261,
  "▁Determine": 6262,
  "▁positions": 6263,
  "▁уравнения": 6264,
  "▁conditions": 6265,
  "▁количества": 6266,
  "bl": 6267,
  "ev": 6268,
  "gs": 6269,
  "-3)": 6270,
  "=14": 6271,
  "old": 6272,
  "гла": 6273,
  "гол": 6274,
  "▁AC": 6275,
  "▁шо": 6276,
  "aper": 6277,
  "gers": 6278,
  "inal": 6279,
  "ницы": 6280,
  "ющих": 6281,
  "▁1.1": 6282,
  "▁29.": 6283,
  "▁50:": 6284,
  "▁75)": 6285,
  "▁Раз": 6286,
  "▁зов": 6287,
  "▁имя": 6288,
  "▁ито": 6289,
  "▁нов": 6290,
  "▁том": 6291,
  "aught": 6292,
  "comes": 6293,
  "енных": 6294,
  "ломет": 6295,
  "тному": 6296,
  "▁'0,0": 6297,
  "▁100.": 6298,
  "▁2018": 6299,
  "▁fish": 6300,
  "▁once": 6301,
  "▁week": 6302,
  "▁Кана": 6303,
  "▁поса": 6304,
  "▁поши": 6305,
  "▁ряду": 6306,
  "▁собы": 6307,
  "▁цвет": 6308,
  "▁Gofmt": 6309,
  "▁arran": 6310,
  "▁block": 6311,
  "▁event": 6312,
  "▁lines": 6313,
  "▁money": 6314,
  "▁prime": 6315,
  "▁конте": 6316,
  "▁попыт": 6317,
  "▁разря": 6318,
  "формати": 6319,
  "▁'1/3',": 6320,
  "▁classm": 6321,
  "▁автобу": 6322,
  "▁втором": 6323,
  "▁доступ": 6324,
  "▁команда": 6325,
  "▁страниц": 6326,
  "▁outcomes": 6327,
  "▁subtract": 6328,
  "▁четверти": 6329,
  "▁определить": 6330,
  ":2": 6331,
  "VA": 6332,
  "az": 6333,
  "ya": 6334,
  "жд": 6335,
  "зд": 6336,
  "фа": 6337,
  "▁й": 6338,
  "+1)": 6339,
  "ats": 6340,
  "lan": 6341,
  "rue": 6342,
  "вин": 6343,
  "дар": 6344,
  "жна": 6345,
  "зви": 6346,
  "кры": 6347,
  "сяц": 6348,
  "тей": 6349,
  "чай": 6350,
  "▁кі": 6351,
  "12',": 6352,
  "=10.": 6353,
  "ring": 6354,
  "temp": 6355,
  "бина": 6356,
  "гоне": 6357,
  "ково": 6358,
  "лите": 6359,
  "стор": 6360,
  "тина": 6361,
  "▁'14": 6362,
  "▁1/6": 6363,
  "▁157": 6364,
  "▁163": 6365,
  "▁195": 6366,
  "▁238": 6367,
  "▁25?": 6368,
  "▁27.": 6369,
  "▁59:": 6370,
  "▁63:": 6371,
  "▁Mar": 6372,
  "▁abs": 6373,
  "▁bus": 6374,
  "▁map": 6375,
  "▁Зна": 6376,
  "▁взя": 6377,
  "grees": 6378,
  "декси": 6379,
  "орема": 6380,
  "▁'120": 6381,
  "▁'4']": 6382,
  "▁most": 6383,
  "▁rece": 6384,
  "▁true": 6385,
  "▁Будь": 6386,
  "▁выта": 6387,
  "▁выше": 6388,
  "▁млад": 6389,
  "▁пояс": 6390,
  "▁спус": 6391,
  "▁цели": 6392,
  "▁'10']": 6393,
  "▁'36']": 6394,
  "▁begin": 6395,
  "▁gives": 6396,
  "▁seven": 6397,
  "▁обяза": 6398,
  "▁суммы": 6399,
  "▁числу": 6400,
  "зований": 6401,
  "▁'2/3',": 6402,
  "▁'360',": 6403,
  "▁attemp": 6404,
  "▁common": 6405,
  "▁второе": 6406,
  "▁вынуть": 6407,
  "▁каждую": 6408,
  "▁класса": 6409,
  "колькими": 6410,
  "▁степени": 6411,
  "▁контекст": 6412,
  "▁equations": 6413,
  "▁однокласс": 6414,
  "▁прогресси": 6415,
  "▁classmates": 6416,
  "▁расстояние": 6417,
  "▁одновременно": 6418,
  "5%": 6419,
  "94": 6420,
  "GP": 6421,
  "KV": 6422,
  "SD": 6423,
  "^6": 6424,
  "ax": 6425,
  "gn": 6426,
  "бі": 6427,
  "ді": 6428,
  "жі": 6429,
  "зм": 6430,
  "йб": 6431,
  "кг": 6432,
  "тя": 6433,
  "яз": 6434,
  "ію": 6435,
  "▁Є": 6436,
  "▁Ї": 6437,
  "▁щ": 6438,
  "▁ї": 6439,
  "=16": 6440,
  "CPU": 6441,
  "ERE": 6442,
  "GPU": 6443,
  "VAL": 6444,
  "bek": 6445,
  "ces": 6446,
  "али": 6447,
  "вая": 6448,
  "вих": 6449,
  "вої": 6450,
  "гою": 6451,
  "зак": 6452,
  "змі": 6453,
  "кут": 6454,
  "лід": 6455,
  "нте": 6456,
  "нує": 6457,
  "ніш": 6458,
  "пна": 6459,
  "реє": 6460,
  "рні": 6461,
  "рон": 6462,
  "тво": 6463,
  "тие": 6464,
  "хід": 6465,
  "шке": 6466,
  "іга": 6467,
  "іпо": 6468,
  "іти": 6469,
  "іфа": 6470,
  "їзд": 6471,
  "їна": 6472,
  "▁8)": 6473,
  "▁>=": 6474,
  "▁WH": 6475,
  "▁Дя": 6476,
  "▁ен": 6477,
  "Cach": 6478,
  "NTER": 6479,
  "amir": 6480,
  "left": 6481,
  "mail": 6482,
  "бува": 6483,
  "ваги": 6484,
  "вних": 6485,
  "гора": 6486,
  "дияр": 6487,
  "дово": 6488,
  "зати": 6489,
  "звуч": 6490,
  "зумі": 6491,
  "йбут": 6492,
  "кову": 6493,
  "кори": 6494,
  "лель": 6495,
  "лися": 6496,
  "мові": 6497,
  "нузи": 6498,
  "нізм": 6499,
  "орне": 6500,
  "пати": 6501,
  "рият": 6502,
  "стій": 6503,
  "сфор": 6504,
  "сяць": 6505,
  "тові": 6506,
  "ходж": 6507,
  "щина": 6508,
  "язок": 6509,
  "▁(15": 6510,
  "▁123": 6511,
  "▁196": 6512,
  "▁2',": 6513,
  "▁30%": 6514,
  "▁37:": 6515,
  "▁71:": 6516,
  "▁72.": 6517,
  "▁NOW": 6518,
  "▁RAM": 6519,
  "▁SSD": 6520,
  "▁bas": 6521,
  "▁loc": 6522,
  "▁Кеш": 6523,
  "▁Чим": 6524,
  "▁бур": 6525,
  "▁вес": 6526,
  "▁всь": 6527,
  "▁дає": 6528,
  "▁дев": 6529,
  "▁док": 6530,
  "▁зро": 6531,
  "▁йти": 6532,
  "▁лас": 6533,
  "▁лог": 6534,
  "▁має": 6535,
  "▁осо": 6536,
  "▁хеш": 6537,
  "▁цей": 6538,
  "▁щоб": 6539,
  "▁яке": 6540,
  "▁які": 6541,
  "▁ізо": 6542,
  "Cache": 6543,
  "esday": 6544,
  "ачити": 6545,
  "бливо": 6546,
  "блиці": 6547,
  "ванні": 6548,
  "годні": 6549,
  "дієнт": 6550,
  "капсу": 6551,
  "кової": 6552,
  "кості": 6553,
  "ливих": 6554,
  "логій": 6555,
  "льної": 6556,
  "лімор": 6557,
  "мання": 6558,
  "нання": 6559,
  "нення": 6560,
  "нська": 6561,
  "оване": 6562,
  "падку": 6563,
  "рення": 6564,
  "рисна": 6565,
  "робки": 6566,
  "стань": 6567,
  "тетів": 6568,
  "тивна": 6569,
  "токол": 6570,
  "фізмі": 6571,
  "хідну": 6572,
  "чайно": 6573,
  "часна": 6574,
  "чення": 6575,
  "язані": 6576,
  "єктно": 6577,
  "іпоте": 6578,
  "▁120.": 6579,
  "▁ACID": 6580,
  "▁elif": 6581,
  "▁incl": 6582,
  "▁prop": 6583,
  "▁vari": 6584,
  "▁Інте": 6585,
  "▁База": 6586,
  "▁Піфа": 6587,
  "▁Русь": 6588,
  "▁базу": 6589,
  "▁бути": 6590,
  "▁вчит": 6591,
  "▁геть": 6592,
  "▁дуже": 6593,
  "▁енер": 6594,
  "▁зага": 6595,
  "▁збер": 6596,
  "▁його": 6597,
  "▁коду": 6598,
  "▁куби": 6599,
  "▁ліси": 6600,
  "▁мати": 6601,
  "▁меха": 6602,
  "▁мило": 6603,
  "▁мові": 6604,
  "▁море": 6605,
  "▁отме": 6606,
  "▁сумі": 6607,
  "▁твої": 6608,
  "▁тобі": 6609,
  "▁тоді": 6610,
  "▁штук": 6611,
  "search": 6612,
  "арифмі": 6613,
  "валися": 6614,
  "винний": 6615,
  "вчання": 6616,
  "закції": 6617,
  "зацтво": 6618,
  "звучна": 6619,
  "зуміла": 6620,
  "йбутнє": 6621,
  "корити": 6622,
  "льтуру": 6623,
  "нішній": 6624,
  "орієнт": 6625,
  "рність": 6626,
  "ронної": 6627,
  "сторію": 6628,
  "стійне": 6629,
  "фічний": 6630,
  "черпна": 6631,
  "ігання": 6632,
  "▁INTER": 6633,
  "▁WHERE": 6634,
  "▁clock": 6635,
  "▁email": 6636,
  "▁Дякую": 6637,
  "▁Чорне": 6638,
  "▁граду": 6639,
  "▁графи": 6640,
  "▁зареє": 6641,
  "▁зворо": 6642,
  "▁знати": 6643,
  "▁ласка": 6644,
  "▁могти": 6645,
  "▁одном": 6646,
  "▁повто": 6647,
  "▁події": 6648,
  "▁препо": 6649,
  "▁рівні": 6650,
  "▁солов": 6651,
  "▁створ": 6652,
  "▁стеки": 6653,
  "▁степи": 6654,
  "▁техно": 6655,
  "▁уваги": 6656,
  "▁умова": 6657,
  "▁часом": 6658,
  "▁черги": 6659,
  "верджує": 6660,
  "залежна": 6661,
  "залежне": 6662,
  "кутнику": 6663,
  "кутному": 6664,
  "ладніше": 6665,
  "лельних": 6666,
  "лідовно": 6667,
  "манщина": 6668,
  "ношення": 6669,
  "повідей": 6670,
  "руктури": 6671,
  "таблиці": 6672,
  "тивного": 6673,
  "▁Знайди": 6674,
  "▁Модель": 6675,
  "▁Привіт": 6676,
  "▁багата": 6677,
  "▁бачити": 6678,
  "▁всього": 6679,
  "▁гіпоте": 6680,
  "▁дитина": 6681,
  "▁другий": 6682,
  "▁думати": 6683,
  "▁думаєш": 6684,
  "▁змінна": 6685,
  "▁казати": 6686,
  "▁ключів": 6687,
  "▁купить": 6688,
  "▁масиви": 6689,
  "▁мережі": 6690,
  "▁місяць": 6691,
  "▁навіть": 6692,
  "▁надзви": 6693,
  "▁оптимі": 6694,
  "▁первое": 6695,
  "▁перший": 6696,
  "▁проєкт": 6697,
  "▁сприят": 6698,
  "▁спуску": 6699,
  "▁стоимо": 6700,
  "▁сьомий": 6701,
  "▁тексту": 6702,
  "▁третій": 6703,
  "▁упаков": 6704,
  "▁хотіти": 6705,
  "▁чудово": 6706,
  "▁шостий": 6707,
  "бливості": 6708,
  "лометрів": 6709,
  "сформера": 6710,
  "товікову": 6711,
  "формація": 6712,
  "ходження": 6713,
  "▁younger": 6714,
  "▁Доброго": 6715,
  "▁Карпати": 6716,
  "▁Теорема": 6717,
  "▁Україна": 6718,
  "▁близько": 6719,
  "▁виконує": 6720,
  "▁восьмий": 6721,
  "▁времени": 6722,
  "▁вчитися": 6723,
  "▁відбува": 6724,
  "▁готовий": 6725,
  "▁десятий": 6726,
  "▁значень": 6727,
  "▁катетів": 6728,
  "▁корисна": 6729,
  "▁полімор": 6730,
  "▁помилка": 6731,
  "▁помилки": 6732,
  "▁похідну": 6733,
  "▁приклад": 6734,
  "▁простых": 6735,
  "▁розкажи": 6736,
  "▁среднее": 6737,
  "▁сучасна": 6738,
  "▁успадку": 6739,
  "▁фруктів": 6740,
  "▁функції": 6741,
  "▁швидкий": 6742,
  "▁штучний": 6743,
  "▁індекси": 6744,
  "▁інкапсу": 6745,
  "▁інструк": 6746,
  "▁історію": 6747,
  "attention": 6748,
  "дієнтного": 6749,
  "▁INTERVAL": 6750,
  "▁obtained": 6751,
  "▁Інтеграл": 6752,
  "▁Київська": 6753,
  "▁Навчання": 6754,
  "▁Протокол": 6755,
  "▁Піфагора": 6756,
  "▁випадків": 6757,
  "▁вичерпна": 6758,
  "▁відстань": 6759,
  "▁деревьев": 6760,
  "▁допомогу": 6761,
  "▁енергоне": 6762,
  "▁завдання": 6763,
  "▁козацтво": 6764,
  "▁культуру": 6765,
  "▁майбутнє": 6766,
  "▁масивних": 6767,
  "▁механізм": 6768,
  "▁останній": 6769,
  "▁постійне": 6770,
  "▁представ": 6771,
  "▁програма": 6772,
  "▁програми": 6773,
  "▁пройдену": 6774,
  "▁розробки": 6775,
  "▁составля": 6776,
  "▁сьогодні": 6777,
  "▁уникаючи": 6778,
  "▁ізоляції": 6779,
  "▁інтелект": 6780,
  "арифмічний": 6781,
  "ентральний": 6782,
  "лідовності": 6783,
  "мовірність": 6784,
  "струвалися": 6785,
  "▁defective": 6786,
  "▁Структури": 6787,
  "▁базується": 6788,
  "▁виконання": 6789,
  "▁відповідь": 6790,
  "▁генерацію": 6791,
  "▁графічний": 6792,
  "▁допомогою": 6793,
  "▁допомогти": 6794,
  "▁загальної": 6795,
  "▁знаходить": 6796,
  "▁зовнішній": 6797,
  "▁зрозуміла": 6798,
  "▁квадратів": 6799,
  "▁командної": 6800,
  "▁контексту": 6801,
  "▁кількості": 6802,
  "▁написання": 6803,
  "▁незалежна": 6804,
  "▁нейронної": 6805,
  "▁отримання": 6806,
  "▁первинний": 6807,
  "▁перевірка": 6808,
  "▁повторних": 6809,
  "▁поширення": 6810,
  "▁пояснення": 6811,
  "▁працювати": 6812,
  "▁стверджує": 6813,
  "▁створений": 6814,
  "▁четвертий": 6815,
  "▁швидкості": 6816,
  "орієнтоване": 6817,
  "▁Оперативна": 6818,
  "▁Українська": 6819,
  "▁випадкової": 6820,
  "▁відношення": 6821,
  "▁відповідей": 6822,
  "▁гіпотенузи": 6823,
  "▁докладніше": 6824,
  "▁зберігання": 6825,
  "▁зворотного": 6826,
  "▁кілометрів": 6827,
  "▁милозвучна": 6828,
  "▁прискорити": 6829,
  "▁технологій": 6830,
  "▁транзакції": 6831,
  "▁трикутнику": 6832,
  "▁інструкції": 6833,
  "▁інформація": 6834,
  "▁progression": 6835,
  "▁гетьманщина": 6836,
  "▁знаходження": 6837,
  "▁надзвичайно": 6838,
  "▁особливості": 6839,
  "▁паралельних": 6840,
  "▁програмного": 6841,
  "▁сприятливих": 6842,
  "▁багатовікову": 6843,
  "▁використовує": 6844,
  "▁відбувається": 6845,
  "▁градієнтного": 6846,
  "▁забезпечення": 6847,
  "▁користувачів": 6848,
  "▁поліморфізмі": 6849,
  "▁прямокутному": 6850,
  "▁трансформера": 6851,
  "▁успадкуванні": 6852,
  "▁інкапсуляції": 6853,
  "▁генеративного": 6854,
  "▁логарифмічний": 6855,
  "▁математичного": 6856,
  "▁оптимізований": 6857,
  "▁послідовності": 6858,
  "▁следовательно": 6859,
  "▁енергонезалежне": 6860,
  "▁зареєструвалися": 6861,
  "1+": 6862,
  "11": 6863,
  "78": 6864,
  "8)": 6865,
  "yn": 6866,
  "лы": 6867,
  "он": 6868,
  ")/(": 6869,
  "+56": 6870,
  "-30": 6871,
  "/90": 6872,
  "=25": 6873,
  "=36": 6874,
  "ert": 6875,
  "ory": 6876,
  "tes": 6877,
  "шем": 6878,
  "▁fu": 6879,
  "▁ар": 6880,
  "+1+1": 6881,
  "+6+6": 6882,
  "=150": 6883,
  "=24.": 6884,
  "ious": 6885,
  "osen": 6886,
  "ouse": 6887,
  "люча": 6888,
  "реза": 6889,
  "▁1.5": 6890,
  "▁10)": 6891,
  "▁116": 6892,
  "▁139": 6893,
  "▁17,": 6894,
  "▁172": 6895,
  "▁179": 6896,
  "▁194": 6897,
  "▁20%": 6898,
  "▁222": 6899,
  "▁420": 6900,
  "▁47.": 6901,
  "▁89:": 6902,
  "▁Sub": 6903,
  "▁typ": 6904,
  "▁нам": 6905,
  "▁ящи": 6906,
  "rintf": 6907,
  "▁'0,4": 6908,
  "▁'1']": 6909,
  "▁1200": 6910,
  "▁ages": 6911,
  "▁dots": 6912,
  "▁look": 6913,
  "▁test": 6914,
  "▁Алма": 6915,
  "▁выиг": 6916,
  "▁деля": 6917,
  "▁мину": 6918,
  "▁обра": 6919,
  "▁трёх": 6920,
  "▁цена": 6921,
  "ляются": 6922,
  "▁names": 6923,
  "▁pairs": 6924,
  "▁water": 6925,
  "▁итоге": 6926,
  "▁общее": 6927,
  "▁отсту": 6928,
  "▁['10',": 6929,
  "▁['12',": 6930,
  "▁['16',": 6931,
  "▁cannot": 6932,
  "▁chosen": 6933,
  "▁median": 6934,
  "▁square": 6935,
  "▁должна": 6936,
  "▁кратно": 6937,
  "▁строка": 6938,
  "▁attempt": 6939,
  "▁certain": 6940,
  "▁degrees": 6941,
  "▁повторя": 6942,
  "▁увеличи": 6943,
  "▁шариков": 6944,
  "▁position": 6945,
  "▁sequence": 6946,
  "▁десятков": 6947,
  "▁значений": 6948,
  "▁Substitute": 6949,
  "▁обязательно": 6950,
  "▁оканчивается": 6951,
  "2;": 6952,
  "ix": 6953,
  "og": 6954,
  "wo": 6955,
  "мя": 6956,
  "man": 6957,
  "дре": 6958,
  "ева": 6959,
  "жан": 6960,
  "мир": 6961,
  "рсе": 6962,
  "▁la": 6963,
  "▁вд": 6964,
  "^201": 6965,
  "erpr": 6966,
  "льси": 6967,
  "стей": 6968,
  "▁26)": 6969,
  "▁289": 6970,
  "▁31.": 6971,
  "▁36.": 6972,
  "▁432": 6973,
  "▁Кай": 6974,
  "▁апе": 6975,
  "▁ска": 6976,
  "возмо": 6977,
  "диана": 6978,
  "ереди": 6979,
  "жения": 6980,
  "мотря": 6981,
  "полни": 6982,
  "▁'0,5": 6983,
  "▁remo": 6984,
  "▁sign": 6985,
  "▁дома": 6986,
  "▁этой": 6987,
  "▁apple": 6988,
  "▁found": 6989,
  "▁games": 6990,
  "▁grand": 6991,
  "▁takes": 6992,
  "▁Болат": 6993,
  "▁весит": 6994,
  "▁имеют": 6995,
  "▁лежат": 6996,
  "▁любая": 6997,
  "▁следу": 6998,
  "▁стало": 6999,
  "▁указа": 7000,
  "▁marked": 7001,
  "▁выигры": 7002,
  "▁каждая": 7003,
  "▁каждом": 7004,
  "ствующих": 7005,
  "▁follows": 7006,
  "▁hitting": 7007,
  "▁matches": 7008,
  "▁pattern": 7009,
  "▁апельси": 7010,
  "▁комбина": 7011,
  "▁получим": 7012,
  "▁попытке": 7013,
  "▁содержа": 7014,
  "▁dividing": 7015,
  "▁которого": 7016,
  "▁красного": 7017,
  "▁подходит": 7018,
  "▁necessary": 7019,
  "▁документу": 7020,
  "▁Определите": 7021,
  "-9": 7022,
  "05": 7023,
  "1;": 7024,
  "49": 7025,
  "=(": 7026,
  "bo": 7027,
  "na": 7028,
  "ам": 7029,
  "!/3": 7030,
  "+16": 7031,
  "/20": 7032,
  "1/1": 7033,
  "=18": 7034,
  "=2.": 7035,
  "ese": 7036,
  "fer": 7037,
  "hys": 7038,
  "лан": 7039,
  "▁00": 7040,
  "▁1-": 7041,
  "▁3!": 7042,
  "▁4-": 7043,
  "▁Но": 7044,
  "▁ды": 7045,
  "▁чё": 7046,
  "!/3!": 7047,
  "*2=6": 7048,
  "=2/3": 7049,
  "elon": 7050,
  "ists": 7051,
  "sing": 7052,
  "веро": 7053,
  "зине": 7054,
  "лати": 7055,
  "овок": 7056,
  "теля": 7057,
  "чено": 7058,
  "▁'17": 7059,
  "▁'23": 7060,
  "▁'75": 7061,
  "▁(26": 7062,
  "▁(35": 7063,
  "▁0.5": 7064,
  "▁0.6": 7065,
  "▁155": 7066,
  "▁23,": 7067,
  "▁242": 7068,
  "▁255": 7069,
  "▁256": 7070,
  "▁28.": 7071,
  "▁288": 7072,
  "▁3*3": 7073,
  "▁330": 7074,
  "▁350": 7075,
  "▁56;": 7076,
  "▁80:": 7077,
  "▁Two": 7078,
  "▁run": 7079,
  "▁sem": 7080,
  "▁лис": 7081,
  "▁'0,6": 7082,
  "▁['10": 7083,
  "▁['15": 7084,
  "▁decl": 7085,
  "▁home": 7086,
  "▁mass": 7087,
  "▁orig": 7088,
  "▁room": 7089,
  "▁team": 7090,
  "format": 7091,
  "буется": 7092,
  "няется": 7093,
  "▁'22',": 7094,
  "▁(1-0.": 7095,
  "▁['7',": 7096,
  "▁costs": 7097,
  "▁exams": 7098,
  "▁вдвое": 7099,
  "▁вынут": 7100,
  "▁знака": 7101,
  "▁самое": 7102,
  "▁'1/5',": 7103,
  "▁['15',": 7104,
  "▁basket": 7105,
  "▁consid": 7106,
  "▁каждое": 7107,
  "▁четные": 7108,
  "▁brother": 7109,
  "▁colored": 7110,
  "▁friends": 7111,
  "▁winning": 7112,
  "▁исходов": 7113,
  "▁который": 7114,
  "▁следует": 7115,
  "▁integers": 7116,
  "▁геометри": 7117,
  "▁градусов": 7118,
  "▁заметить": 7119,
  "▁несмотря": 7120,
  "▁нечетные": 7121,
  "▁разность": 7122,
  "▁располож": 7123,
  "▁Подставим": 7124,
  "▁остальных": 7125,
  "▁преподает": 7126,
  "▁трехзначных": 7127,
  "▁последовательно": 7128,
  "16": 7129,
  "27": 7130,
  "4*": 7131,
  "98": 7132,
  "AN": 7133,
  "ik": 7134,
  "wh": 7135,
  "уд": 7136,
  "*12": 7137,
  "ext": 7138,
  "ier": 7139,
  "tic": 7140,
  "urs": 7141,
  "шка": 7142,
  "▁-5": 7143,
  "▁Ни": 7144,
  "▁Он": 7145,
  "▁То": 7146,
  "▁ее": 7147,
  "▁съ": 7148,
  "amps": 7149,
  "cent": 7150,
  "pite": 7151,
  "shot": 7152,
  "zhan": 7153,
  "вших": 7154,
  "нные": 7155,
  "цент": 7156,
  "щего": 7157,
  "▁(21": 7158,
  "▁127": 7159,
  "▁141": 7160,
  "▁142": 7161,
  "▁167": 7162,
  "▁225": 7163,
  "▁26?": 7164,
  "▁28,": 7165,
  "▁286": 7166,
  "▁44.": 7167,
  "▁49.": 7168,
  "▁55.": 7169,
  "▁57:": 7170,
  "▁60.": 7171,
  "▁66:": 7172,
  "▁67:": 7173,
  "▁68:": 7174,
  "▁70:": 7175,
  "▁72:": 7176,
  "▁800": 7177,
  "▁ben": 7178,
  "▁fam": 7179,
  "▁gas": 7180,
  "▁man": 7181,
  "▁nor": 7182,
  "▁sim": 7183,
  "rands": 7184,
  "▁path": 7185,
  "▁sist": 7186,
  "▁была": 7187,
  "▁пять": 7188,
  "▁шары": 7189,
  "father": 7190,
  "▁Damir": 7191,
  "▁cubes": 7192,
  "▁house": 7193,
  "▁numer": 7194,
  "▁turns": 7195,
  "▁worst": 7196,
  "▁место": 7197,
  "▁объяв": 7198,
  "разовой": 7199,
  "▁geomet": 7200,
  "▁import": 7201,
  "▁despite": 7202,
  "▁данного": 7203,
  "▁заплати": 7204,
  "▁коробок": 7205,
  "▁произво": 7206,
  "▁разряде": 7207,
  "▁утвержд": 7208,
  "▁produced": 7209,
  "▁Составим": 7210,
  "▁костяшек": 7211,
  "▁Сколькими": 7212,
  "▁несколько": 7213,
  "▁оказалось": 7214,
  "▁остальные": 7215,
  "▁одноразовой": 7216,
  ")-": 7217,
  ");": 7218,
  "46": 7219,
  "ib": 7220,
  "nd": 7221,
  "up": 7222,
  "*60": 7223,
  "+55": 7224,
  "=5,": 7225,
  "LLL": 7226,
  "ena": 7227,
  "equ": 7228,
  "ile": 7229,
  "lic": 7230,
  "mal": 7231,
  "ves": 7232,
  "ими": 7233,
  "кан": 7234,
  "так": 7235,
  "уго": 7236,
  "чен": 7237,
  "ъез": 7238,
  "▁2-": 7239,
  "▁tg": 7240,
  "▁ур": 7241,
  "+201": 7242,
  ",5',": 7243,
  "/6',": 7244,
  "amat": 7245,
  "ased": 7246,
  "cket": 7247,
  "вить": 7248,
  "дать": 7249,
  "мере": 7250,
  "овая": 7251,
  "ходя": 7252,
  "щить": 7253,
  "▁(37": 7254,
  "▁0.2": 7255,
  "▁1',": 7256,
  "▁1.2": 7257,
  "▁10%": 7258,
  "▁11;": 7259,
  "▁16;": 7260,
  "▁178": 7261,
  "▁183": 7262,
  "▁20)": 7263,
  "▁202": 7264,
  "▁206": 7265,
  "▁239": 7266,
  "▁24,": 7267,
  "▁3/2": 7268,
  "▁30)": 7269,
  "▁32.": 7270,
  "▁408": 7271,
  "▁40:": 7272,
  "▁41.": 7273,
  "▁42.": 7274,
  "▁440": 7275,
  "▁55;": 7276,
  "▁58:": 7277,
  "▁60:": 7278,
  "▁But": 7279,
  "▁['9": 7280,
  "▁clo": 7281,
  "▁fmt": 7282,
  "▁ind": 7283,
  "▁log": 7284,
  "▁urn": 7285,
  "▁wra": 7286,
  "▁бан": 7287,
  "▁неч": 7288,
  "▁ско": 7289,
  "▁уче": 7290,
  "/25',": 7291,
  "thers": 7292,
  "vious": 7293,
  "еньши": 7294,
  "льной": 7295,
  "шиеся": 7296,
  "▁'100": 7297,
  "▁0.95": 7298,
  "▁buil": 7299,
  "▁tour": 7300,
  "▁went": 7301,
  "▁wife": 7302,
  "▁году": 7303,
  "▁доми": 7304,
  "▁орех": 7305,
  "▁печа": 7306,
  "▁цель": 7307,
  "▁этот": 7308,
  "*3*2*1": 7309,
  "▁'11/2": 7310,
  "▁'12']": 7311,
  "▁'14',": 7312,
  "▁'16']": 7313,
  "▁'24']": 7314,
  "▁'60',": 7315,
  "▁['9',": 7316,
  "▁eight": 7317,
  "▁inter": 7318,
  "▁stand": 7319,
  "▁Можно": 7320,
  "▁детей": 7321,
  "▁коров": 7322,
  "▁кости": 7323,
  "▁перси": 7324,
  "▁согла": 7325,
  "▁ящике": 7326,
  "aturday": 7327,
  "aughter": 7328,
  "▁['60',": 7329,
  "▁appear": 7330,
  "▁divide": 7331,
  "▁fourth": 7332,
  "▁remain": 7333,
  "▁sister": 7334,
  "▁список": 7335,
  "▁делятся": 7336,
  "▁коробки": 7337,
  "▁процент": 7338,
  "▁starting": 7339,
  "▁возраста": 7340,
  "▁студентов": 7341,
  "▁statements": 7342,
  "▁substitute": 7343,
  "▁отрицатель": 7344,
  "▁результате": 7345,
  "▁минимальное": 7346,
  "▁четырехзначных": 7347,
  "39": 7348,
  "6)": 7349,
  ":1": 7350,
  "%']": 7351,
  "+0.": 7352,
  "12.": 7353,
  "=1.": 7354,
  "ash": 7355,
  "cle": 7356,
  "way": 7357,
  "бки": 7358,
  "вро": 7359,
  "зов": 7360,
  "нию": 7361,
  "рес": 7362,
  "щем": 7363,
  "▁-2": 7364,
  "▁eg": 7365,
  "▁Ер": 7366,
  "▁Ме": 7367,
  "▁Од": 7368,
  "/2=1": 7369,
  "76',": 7370,
  "ilar": 7371,
  "rith": 7372,
  "room": 7373,
  "бира": 7374,
  "жных": 7375,
  "ится": 7376,
  "ники": 7377,
  "нное": 7378,
  "тели": 7379,
  "▁122": 7380,
  "▁149": 7381,
  "▁14;": 7382,
  "▁175": 7383,
  "▁213": 7384,
  "▁22)": 7385,
  "▁22:": 7386,
  "▁231": 7387,
  "▁25%": 7388,
  "▁270": 7389,
  "▁294": 7390,
  "▁30,": 7391,
  "▁336": 7392,
  "▁361": 7393,
  "▁39:": 7394,
  "▁40)": 7395,
  "▁45:": 7396,
  "▁50)": 7397,
  "▁56:": 7398,
  "▁64:": 7399,
  "▁86:": 7400,
  "▁89)": 7401,
  "▁arg": 7402,
  "▁boy": 7403,
  "▁eur": 7404,
  "▁hun": 7405,
  "▁wal": 7406,
  "▁Чет": 7407,
  "▁ему": 7408,
  "▁пят": 7409,
  "▁тип": 7410,
  "enter": 7411,
  "metic": 7412,
  "ready": 7413,
  "uring": 7414,
  "▁1100": 7415,
  "▁bake": 7416,
  "▁bank": 7417,
  "▁full": 7418,
  "▁move": 7419,
  "▁page": 7420,
  "▁Аска": 7421,
  "▁Спан": 7422,
  "▁маши": 7423,
  "▁Almat": 7424,
  "▁grade": 7425,
  "▁needs": 7426,
  "▁spent": 7427,
  "▁Какой": 7428,
  "▁потре": 7429,
  "▁рыбок": 7430,
  "creased": 7431,
  "ossible": 7432,
  "randson": 7433,
  "значные": 7434,
  "▁['20',": 7435,
  "▁became": 7436,
  "▁entran": 7437,
  "▁family": 7438,
  "▁father": 7439,
  "▁slices": 7440,
  "▁Найдем": 7441,
  "▁делает": 7442,
  "▁попада": 7443,
  "▁третий": 7444,
  "▁oranges": 7445,
  "▁имеется": 7446,
  "▁формуле": 7447,
  "rithmetic": 7448,
  "▁argument": 7449,
  "▁daughter": 7450,
  "▁document": 7451,
  "▁варианта": 7452,
  "▁записать": 7453,
  "▁известно": 7454,
  "▁половину": 7455,
  "▁identical": 7456,
  "▁выстрелов": 7457,
  "▁карандаша": 7458,
  "▁следующие": 7459,
  "▁комментария": 7460,
  "▁пятизначных": 7461,
  "▁participants": 7462,
  "▁используется": 7463,
  "(5": 7464,
  "/9": 7465,
  "4+": 7466,
  "96": 7467,
  "AT": 7468,
  "FF": 7469,
  "yd": 7470,
  ")=(": 7471,
  "+21": 7472,
  ".']": 7473,
  "/0.": 7474,
  "40.": 7475,
  "=0,": 7476,
  "=4,": 7477,
  "=84": 7478,
  "KKK": 7479,
  "aro": 7480,
  "ire": 7481,
  "mer": 7482,
  "sec": 7483,
  "апа": 7484,
  "его": 7485,
  "нец": 7486,
  "щей": 7487,
  "▁..": 7488,
  "▁3-": 7489,
  "▁Ar": 7490,
  "▁sy": 7491,
  "▁ло": 7492,
  "/9',": 7493,
  "30',": 7494,
  "40',": 7495,
  "eral": 7496,
  "iles": 7497,
  "irat": 7498,
  "mino": 7499,
  "mist": 7500,
  "алей": 7501,
  "апаз": 7502,
  "енег": 7503,
  "ндар": 7504,
  "▁'18": 7505,
  "▁'21": 7506,
  "▁'60": 7507,
  "▁(12": 7508,
  "▁(2,": 7509,
  "▁(20": 7510,
  "▁0',": 7511,
  "▁107": 7512,
  "▁134": 7513,
  "▁164": 7514,
  "▁21)": 7515,
  "▁217": 7516,
  "▁241": 7517,
  "▁3).": 7518,
  "▁3/7": 7519,
  "▁320": 7520,
  "▁35.": 7521,
  "▁363": 7522,
  "▁40%": 7523,
  "▁47)": 7524,
  "▁48)": 7525,
  "▁62)": 7526,
  "▁63)": 7527,
  "▁68)": 7528,
  "▁76)": 7529,
  "▁77:": 7530,
  "▁99)": 7531,
  "▁['8": 7532,
  "▁bag": 7533,
  "▁bul": 7534,
  "▁key": 7535,
  "▁law": 7536,
  "▁муж": 7537,
  "▁шко": 7538,
  "/10',": 7539,
  "/32',": 7540,
  "angle": 7541,
  "erval": 7542,
  "ities": 7543,
  "пусти": 7544,
  "уголь": 7545,
  "▁cows": 7546,
  "▁eggs": 7547,
  "▁face": 7548,
  "▁head": 7549,
  "▁uses": 7550,
  "▁Итак": 7551,
  "▁вытя": 7552,
  "▁дает": 7553,
  "▁евро": 7554,
  "▁путь": 7555,
  "▁хими": 7556,
  "atasha": 7557,
  "mistry": 7558,
  "гумент": 7559,
  "▁'17',": 7560,
  "▁'23',": 7561,
  "▁cases": 7562,
  "▁colle": 7563,
  "▁defin": 7564,
  "▁paper": 7565,
  "▁round": 7566,
  "▁score": 7567,
  "▁Найти": 7568,
  "▁Через": 7569,
  "▁буква": 7570,
  "▁грани": 7571,
  "▁денег": 7572,
  "▁добав": 7573,
  "▁долла": 7574,
  "▁набра": 7575,
  "▁перед": 7576,
  "▁распи": 7577,
  "▁целых": 7578,
  "▁'1/2',": 7579,
  "▁'1/4',": 7580,
  "▁'240',": 7581,
  "▁Kairat": 7582,
  "▁['18',": 7583,
  "▁domino": 7584,
  "▁repres": 7585,
  "▁solved": 7586,
  "▁данную": 7587,
  "▁каждые": 7588,
  "▁потому": 7589,
  "▁account": 7590,
  "▁already": 7591,
  "▁Среднее": 7592,
  "▁деталей": 7593,
  "▁помощью": 7594,
  "▁everyone": 7595,
  "▁interval": 7596,
  "▁original": 7597,
  "▁вытащить": 7598,
  "▁отмечено": 7599,
  "▁therefore": 7600,
  "▁возможные": 7601,
  "▁используя": 7602,
  "▁apartments": 7603,
  "▁handshakes": 7604,
  "▁начинается": 7605,
  "▁отсутствующих": 7606,
  "02": 7607,
  "38": 7608,
  "52": 7609,
  "86": 7610,
  "зе": 7611,
  "▁Ю": 7612,
  "+20": 7613,
  "80.": 7614,
  "aev": 7615,
  "eks": 7616,
  "ips": 7617,
  "ner": 7618,
  "дук": 7619,
  "ете": 7620,
  "лге": 7621,
  "ски": 7622,
  "тен": 7623,
  "▁Am": 7624,
  "▁Му": 7625,
  "▁Мы": 7626,
  "+8+8": 7627,
  "baev": 7628,
  "ived": 7629,
  "ntil": 7630,
  "onds": 7631,
  "otes": 7632,
  "мена": 7633,
  "нару": 7634,
  "нной": 7635,
  "нова": 7636,
  "▁(1,": 7637,
  "▁(14": 7638,
  "▁174": 7639,
  "▁181": 7640,
  "▁203": 7641,
  "▁223": 7642,
  "▁224": 7643,
  "▁233": 7644,
  "▁236": 7645,
  "▁3.5": 7646,
  "▁33:": 7647,
  "▁390": 7648,
  "▁46.": 7649,
  "▁52.": 7650,
  "▁55:": 7651,
  "▁62:": 7652,
  "▁83)": 7653,
  "▁Ast": 7654,
  "▁Изв": 7655,
  "▁оно": 7656,
  "inter": 7657,
  "ultan": 7658,
  "скрес": 7659,
  "стоит": 7660,
  "▁105:": 7661,
  "▁came": 7662,
  "▁camp": 7663,
  "▁carp": 7664,
  "▁open": 7665,
  "▁suit": 7666,
  "▁Кажд": 7667,
  "▁неко": 7668,
  "▁пути": 7669,
  "▁семь": 7670,
  "▁угол": 7671,
  "▁учеб": 7672,
  "malade": 7673,
  "чается": 7674,
  "▁Askar": 7675,
  "▁alloc": 7676,
  "▁bytes": 7677,
  "▁const": 7678,
  "▁inclu": 7679,
  "▁power": 7680,
  "▁types": 7681,
  "▁weeks": 7682,
  "▁wrapp": 7683,
  "▁Дамир": 7684,
  "▁Среди": 7685,
  "▁белый": 7686,
  "▁каком": 7687,
  "▁кость": 7688,
  "▁марме": 7689,
  "▁марок": 7690,
  "▁метра": 7691,
  "▁покуп": 7692,
  "▁пораж": 7693,
  "▁потра": 7694,
  "▁такие": 7695,
  "▁Astana": 7696,
  "▁absent": 7697,
  "▁stamps": 7698,
  "▁weighs": 7699,
  "▁баллов": 7700,
  "▁диапаз": 7701,
  "▁желтых": 7702,
  "▁задачу": 7703,
  "▁минуту": 7704,
  "▁минуты": 7705,
  "▁наличи": 7706,
  "▁ответа": 7707,
  "▁подъез": 7708,
  "▁продук": 7709,
  "▁равным": 7710,
  "▁percent": 7711,
  "▁seconds": 7712,
  "▁section": 7713,
  "▁squares": 7714,
  "▁teaches": 7715,
  "▁выпадет": 7716,
  "▁содержи": 7717,
  "▁ученика": 7718,
  "▁формати": 7719,
  "▁knuckles": 7720,
  "▁reformat": 7721,
  "▁standard": 7722,
  "▁suitable": 7723,
  "▁Известно": 7724,
  "▁аргумент": 7725,
  "▁вопросов": 7726,
  "▁страницы": 7727,
  "▁условиям": 7728,
  "▁являются": 7729,
  "▁apartment": 7730,
  "▁beginning": 7731,
  "▁chemistry": 7732,
  "▁marmalade": 7733,
  "▁выражение": 7734,
  "▁поставить": 7735,
  "▁guaranteed": 7736,
  "▁corresponds": 7737,
  "▁комментарий": 7738,
  "▁натуральных": 7739,
  "▁переформати": 7740,
  "5;": 7741,
  ";2": 7742,
  "=?": 7743,
  "ey": 7744,
  "ln": 7745,
  "vo": 7746,
  "яб": 7747,
  "▁_": 7748,
  ")^2": 7749,
  "+14": 7750,
  "+3,": 7751,
  "-12": 7752,
  "/24": 7753,
  "/30": 7754,
  "/4.": 7755,
  "/6.": 7756,
  "/60": 7757,
  "=1,": 7758,
  "=11": 7759,
  "=60": 7760,
  "=9,": 7761,
  "^2+": 7762,
  "ged": 7763,
  "ied": 7764,
  "tle": 7765,
  "ает": 7766,
  "аче": 7767,
  "все": 7768,
  "меж": 7769,
  "над": 7770,
  "тиц": 7771,
  "▁Ay": 7772,
  "▁HT": 7773,
  "▁Sh": 7774,
  "▁os": 7775,
  "*0.2": 7776,
  "+8+6": 7777,
  "/8',": 7778,
  "25']": 7779,
  "75',": 7780,
  "abit": 7781,
  "agat": 7782,
  "avor": 7783,
  "band": 7784,
  "ject": 7785,
  "ongs": 7786,
  "pils": 7787,
  "will": 7788,
  "ками": 7789,
  "лага": 7790,
  "стве": 7791,
  "чках": 7792,
  "▁'66": 7793,
  "▁'80": 7794,
  "▁'90": 7795,
  "▁1+2": 7796,
  "▁113": 7797,
  "▁188": 7798,
  "▁2/1": 7799,
  "▁221": 7800,
  "▁245": 7801,
  "▁25:": 7802,
  "▁285": 7803,
  "▁287": 7804,
  "▁29?": 7805,
  "▁304": 7806,
  "▁30?": 7807,
  "▁34)": 7808,
  "▁37)": 7809,
  "▁389": 7810,
  "▁4/1": 7811,
  "▁42:": 7812,
  "▁49:": 7813,
  "▁52:": 7814,
  "▁55,": 7815,
  "▁630": 7816,
  "▁79)": 7817,
  "▁80)": 7818,
  "▁81:": 7819,
  "▁84.": 7820,
  "▁88?": 7821,
  "▁91:": 7822,
  "▁93:": 7823,
  "▁98)": 7824,
  "▁ago": 7825,
  "▁ate": 7826,
  "▁bed": 7827,
  "▁cir": 7828,
  "▁dri": 7829,
  "▁mis": 7830,
  "▁tok": 7831,
  "▁бай": 7832,
  "▁мог": 7833,
  "▁ото": 7834,
  "▁сни": 7835,
  "▁тан": 7836,
  "▁тур": 7837,
  "<2017": 7838,
  "aking": 7839,
  "ublic": 7840,
  "unday": 7841,
  "ложим": 7842,
  "▁'1/3": 7843,
  "▁'3/2": 7844,
  "▁1.15": 7845,
  "▁1/4.": 7846,
  "▁2003": 7847,
  "▁3000": 7848,
  "▁Lena": 7849,
  "▁file": 7850,
  "▁phys": 7851,
  "▁sour": 7852,
  "▁Пред": 7853,
  "▁Расс": 7854,
  "▁брев": 7855,
  "▁гряд": 7856,
  "▁дроб": 7857,
  "▁птиц": 7858,
  "▁чита": 7859,
  "+55+56": 7860,
  "0000',": 7861,
  "abitov": 7862,
  "anagat": 7863,
  "ldiyar": 7864,
  "nterpr": 7865,
  "rintln": 7866,
  "ющихся": 7867,
  "▁'22']": 7868,
  "▁'26',": 7869,
  "▁'50',": 7870,
  "▁'52',": 7871,
  "▁'56',": 7872,
  "▁'66',": 7873,
  "▁'72']": 7874,
  "▁10000": 7875,
  "▁2*2*2": 7876,
  "▁3*2=6": 7877,
  "▁Among": 7878,
  "▁['8',": 7879,
  "▁blank": 7880,
  "▁defer": 7881,
  "▁elect": 7882,
  "▁refer": 7883,
  "▁teach": 7884,
  "▁друга": 7885,
  "▁иметь": 7886,
  "▁курсе": 7887,
  "▁мудре": 7888,
  "▁песен": 7889,
  "рование": 7890,
  "▁['11',": 7891,
  "▁called": 7892,
  "▁indent": 7893,
  "▁pocket": 7894,
  "▁powers": 7895,
  "▁pupils": 7896,
  "▁данной": 7897,
  "▁номера": 7898,
  "▁разных": 7899,
  "▁четных": 7900,
  "тельного": 7901,
  "▁lessons": 7902,
  "▁players": 7903,
  "▁tickets": 7904,
  "▁голосов": 7905,
  "▁корзине": 7906,
  "▁номеров": 7907,
  "▁обратно": 7908,
  "▁систему": 7909,
  "▁события": 7910,
  "▁состоит": 7911,
  "▁стандар": 7912,
  "▁complete": 7913,
  "▁ватрушки": 7914,
  "▁карточек": 7915,
  "▁мальчика": 7916,
  "▁составим": 7917,
  "▁экзамена": 7918,
  "▁functions": 7919,
  "▁resulting": 7920,
  "▁поскольку": 7921,
  "▁стоимость": 7922,
  "▁contributed": 7923,
  "▁определенно": 7924,
  "▁закономерность": 7925,
  "8;": 7926,
  "91": 7927,
  "OF": 7928,
  "ew": 7929,
  "tc": 7930,
  "АТ": 7931,
  "ды": 7932,
  "ол": 7933,
  "цу": 7934,
  "/13": 7935,
  "30.": 7936,
  "4.5": 7937,
  "44.": 7938,
  "ara": 7939,
  "bay": 7940,
  "mek": 7941,
  "mit": 7942,
  "ode": 7943,
  "ork": 7944,
  "pkg": 7945,
  "son": 7946,
  "vel": 7947,
  "ест": 7948,
  "лой": 7949,
  "мек": 7950,
  "мин": 7951,
  "нти": 7952,
  "шли": 7953,
  "▁2*": 7954,
  "▁Ва": 7955,
  "▁Су": 7956,
  "atio": 7957,
  "cept": 7958,
  "hour": 7959,
  "ries": 7960,
  "ways": 7961,
  "дели": 7962,
  "жить": 7963,
  "йдет": 7964,
  "ключ": 7965,
  "рани": 7966,
  "цать": 7967,
  "чери": 7968,
  "▁'3,": 7969,
  "▁12)": 7970,
  "▁151": 7971,
  "▁159": 7972,
  "▁177": 7973,
  "▁185": 7974,
  "▁189": 7975,
  "▁205": 7976,
  "▁218": 7977,
  "▁235": 7978,
  "▁237": 7979,
  "▁273": 7980,
  "▁31)": 7981,
  "▁31:": 7982,
  "▁34:": 7983,
  "▁48:": 7984,
  "▁494": 7985,
  "▁498": 7986,
  "▁50%": 7987,
  "▁61:": 7988,
  "▁70)": 7989,
  "▁75:": 7990,
  "▁78.": 7991,
  "▁82)": 7992,
  "▁83:": 7993,
  "▁85)": 7994,
  "▁85:": 7995,
  "▁87)": 7996,
  "▁90.": 7997,
  "▁92:": 7998,
  "▁97:": 7999,
  "▁Din": 8000,
  "▁Rus": 8001,
  "▁hus": 8002,
  "▁off": 8003,
  "▁our": 8004,
  "▁pay": 8005,
  "▁sat": 8006,
  "▁Вла": 8007,
  "▁Май": 8008,
  "▁вну": 8009,
  "▁год": 8010,
  "▁лаг": 8011,
  "▁худ": 8012,
  "oding": 8013,
  "проси": 8014,
  "▁106:": 8015,
  "▁137:": 8016,
  "▁360.": 8017,
  "▁fiel": 8018,
  "▁live": 8019,
  "▁lock": 8020,
  "▁repl": 8021,
  "▁Аста": 8022,
  "▁Перв": 8023,
  "▁взят": 8024,
  "▁имен": 8025,
  "▁каче": 8026,
  "▁любы": 8027,
  "▁окра": 8028,
  "▁повы": 8029,
  "▁рабо": 8030,
  "▁реши": 8031,
  "▁цены": 8032,
  "▁ябло": 8033,
  "+10+10": 8034,
  "uesday": 8035,
  "наружи": 8036,
  "▁Spand": 8037,
  "▁drawn": 8038,
  "▁fract": 8039,
  "▁ratio": 8040,
  "▁sheet": 8041,
  "▁those": 8042,
  "▁until": 8043,
  "▁whose": 8044,
  "▁Когда": 8045,
  "▁букву": 8046,
  "▁восем": 8047,
  "▁закан": 8048,
  "▁закры": 8049,
  "▁извле": 8050,
  "▁означ": 8051,
  "▁сказа": 8052,
  "▁скаме": 8053,
  "▁собра": 8054,
  "▁сотен": 8055,
  "/100=0.": 8056,
  "correct": 8057,
  "ментари": 8058,
  "рованно": 8059,
  "тельных": 8060,
  "▁'3/4']": 8061,
  "▁Almaty": 8062,
  "▁Sunday": 8063,
  "▁declar": 8064,
  "▁during": 8065,
  "▁entire": 8066,
  "▁places": 8067,
  "▁turned": 8068,
  "▁Получа": 8069,
  "▁вместо": 8070,
  "▁данное": 8071,
  "▁других": 8072,
  "▁закону": 8073,
  "▁месяце": 8074,
  "▁найдем": 8075,
  "▁недели": 8076,
  "▁промеж": 8077,
  "▁станет": 8078,
  "▁четное": 8079,
  "возможно": 8080,
  "▁Natasha": 8081,
  "▁benches": 8082,
  "▁desired": 8083,
  "▁heading": 8084,
  "▁husband": 8085,
  "▁pointer": 8086,
  "▁removed": 8087,
  "▁serving": 8088,
  "▁Находим": 8089,
  "▁Сначала": 8090,
  "▁бракова": 8091,
  "▁воскрес": 8092,
  "▁квартир": 8093,
  "▁позиций": 8094,
  "▁примере": 8095,
  "▁учитыва": 8096,
  "▁packages": 8097,
  "▁repeated": 8098,
  "▁required": 8099,
  "▁автобусе": 8100,
  "▁означает": 8101,
  "▁случайно": 8102,
  "▁multiples": 8103,
  "▁textbooks": 8104,
  "▁variables": 8105,
  "▁возрастов": 8106,
  "▁выстрелом": 8107,
  "▁использую": 8108,
  "▁calculated": 8109,
  "▁апельсинов": 8110,
  "▁наибольшее": 8111,
  "▁оставшиеся": 8112,
  "▁переменных": 8113,
  "▁получилось": 8114,
  "▁участников": 8115,
  "▁максимальное": 8116,
  "▁определенному": 8117,
  "▁гарантированно": 8118,
  "(4": 8119,
  "->": 8120,
  ".3": 8121,
  "2+": 8122,
  "88": 8123,
  "9)": 8124,
  "II": 8125,
  "ML": 8126,
  "RL": 8127,
  "АН": 8128,
  "ью": 8129,
  ")=2": 8130,
  ")=3": 8131,
  "*13": 8132,
  "*30": 8133,
  "+15": 8134,
  "+54": 8135,
  "-10": 8136,
  "/2!": 8137,
  "/2=": 8138,
  "/4)": 8139,
  "75.": 8140,
  "800": 8141,
  "989": 8142,
  "999": 8143,
  "=40": 8144,
  "=64": 8145,
  "=7.": 8146,
  "olp": 8147,
  "uty": 8148,
  "бел": 8149,
  "бло": 8150,
  "изв": 8151,
  "лое": 8152,
  "лта": 8153,
  "мая": 8154,
  "нок": 8155,
  "сед": 8156,
  "чей": 8157,
  "шую": 8158,
  "▁6!": 8159,
  "▁Er": 8160,
  "▁Op": 8161,
  "▁Ар": 8162,
  "*0.9": 8163,
  "+100": 8164,
  "+480": 8165,
  "-1/3": 8166,
  "01',": 8167,
  "5%',": 8168,
  "idar": 8169,
  "ntax": 8170,
  "omat": 8171,
  "osha": 8172,
  "shyn": 8173,
  "бежа": 8174,
  "дачу": 8175,
  "дить": 8176,
  "игра": 8177,
  "лада": 8178,
  "маги": 8179,
  "нный": 8180,
  "стой": 8181,
  "тами": 8182,
  "телю": 8183,
  "тное": 8184,
  "торы": 8185,
  "цева": 8186,
  "щему": 8187,
  "▁'22": 8188,
  "▁'70": 8189,
  "▁18;": 8190,
  "▁191": 8191,
  "▁193": 8192,
  "▁207": 8193,
  "▁208": 8194,
  "▁21,": 8195,
  "▁24)": 8196,
  "▁244": 8197,
  "▁24;": 8198,
  "▁260": 8199,
  "▁27,": 8200,
  "▁27:": 8201,
  "▁2^2": 8202,
  "▁32)": 8203,
  "▁32,": 8204,
  "▁325": 8205,
  "▁367": 8206,
  "▁36:": 8207,
  "▁375": 8208,
  "▁38)": 8209,
  "▁38.": 8210,
  "▁383": 8211,
  "▁388": 8212,
  "▁427": 8213,
  "▁437": 8214,
  "▁45,": 8215,
  "▁450": 8216,
  "▁46:": 8217,
  "▁47:": 8218,
  "▁495": 8219,
  "▁51:": 8220,
  "▁53:": 8221,
  "▁54;": 8222,
  "▁56.": 8223,
  "▁64.": 8224,
  "▁69:": 8225,
  "▁73:": 8226,
  "▁77)": 8227,
  "▁78)": 8228,
  "▁78:": 8229,
  "▁86)": 8230,
  "▁87:": 8231,
  "▁92)": 8232,
  "▁97)": 8233,
  "▁99.": 8234,
  "▁Nur": 8235,
  "▁bar": 8236,
  "▁ear": 8237,
  "▁err": 8238,
  "▁etc": 8239,
  "▁fru": 8240,
  "▁may": 8241,
  "▁pas": 8242,
  "▁зам": 8243,
  "▁уро": 8244,
  "▁чте": 8245,
  "ality": 8246,
  "anced": 8247,
  "ences": 8248,
  "ition": 8249,
  "olpan": 8250,
  "osite": 8251,
  "riday": 8252,
  "uffer": 8253,
  "вание": 8254,
  "всего": 8255,
  "готов": 8256,
  "олпан": 8257,
  "прият": 8258,
  "▁'0,8": 8259,
  "▁'150": 8260,
  "▁1/3.": 8261,
  "▁109:": 8262,
  "▁128:": 8263,
  "▁131:": 8264,
  "▁20%.": 8265,
  "▁2019": 8266,
  "▁210.": 8267,
  "▁300.": 8268,
  "▁5000": 8269,
  "▁Four": 8270,
  "▁HTML": 8271,
  "▁conv": 8272,
  "▁paid": 8273,
  "▁span": 8274,
  "▁Игра": 8275,
  "▁Ната": 8276,
  "▁Одна": 8277,
  "▁блок": 8278,
  "▁вида": 8279,
  "▁деду": 8280,
  "▁отде": 8281,
  "▁само": 8282,
  "▁урок": 8283,
  "▁числ": 8284,
  "лектро": 8285,
  "▁'19',": 8286,
  "▁'42',": 8287,
  "▁'72',": 8288,
  "▁'81',": 8289,
  "▁favor": 8290,
  "▁melon": 8291,
  "▁separ": 8292,
  "▁tiles": 8293,
  "▁Айман": 8294,
  "▁Ермек": 8295,
  "▁видов": 8296,
  "▁интер": 8297,
  "▁карма": 8298,
  "▁ручки": 8299,
  "▁слева": 8300,
  "▁'1/4']": 8301,
  "▁'125',": 8302,
  "▁Alshyn": 8303,
  "▁String": 8304,
  "▁['19',": 8305,
  "▁['24',": 8306,
  "▁always": 8307,
  "▁assign": 8308,
  "▁assume": 8309,
  "▁cities": 8310,
  "▁lesson": 8311,
  "▁liters": 8312,
  "▁notice": 8313,
  "▁passed": 8314,
  "▁бумаги": 8315,
  "▁восемь": 8316,
  "▁вызыва": 8317,
  "▁группы": 8318,
  "▁домино": 8319,
  "▁дочери": 8320,
  "▁отобра": 8321,
  "▁партий": 8322,
  "▁покупа": 8323,
  "▁предпо": 8324,
  "▁размах": 8325,
  "▁сестре": 8326,
  "▁стоять": 8327,
  "▁яблока": 8328,
  "▁'3/10',": 8329,
  "▁'5/13']": 8330,
  "▁Aldiyar": 8331,
  "▁Kanagat": 8332,
  "▁Sabitov": 8333,
  "▁Sholpan": 8334,
  "▁['1/5',": 8335,
  "▁['720',": 8336,
  "▁shooter": 8337,
  "▁вопроси": 8338,
  "▁вынутый": 8339,
  "▁зеленый": 8340,
  "▁которой": 8341,
  "▁красные": 8342,
  "▁наличие": 8343,
  "▁птицами": 8344,
  "▁танцева": 8345,
  "▁'11/28']": 8346,
  "▁Saturday": 8347,
  "▁arranged": 8348,
  "▁consider": 8349,
  "▁discount": 8350,
  "▁entrance": 8351,
  "▁geometry": 8352,
  "▁numbered": 8353,
  "▁карточки": 8354,
  "▁нечетных": 8355,
  "▁обнаружи": 8356,
  "▁содержит": 8357,
  "▁incorrect": 8358,
  "▁initially": 8359,
  "▁Игральная": 8360,
  "▁мармелада": 8361,
  "▁продукции": 8362,
  "▁экзаменов": 8363,
  "▁использует": 8364,
  "▁увеличится": 8365,
  "▁grandfather": 8366,
  "▁прогрессией": 8367,
  "▁documentation": 8368,
  "▁гарантировать": 8369,
  "▁одноклассников": 8370,
  "23": 8371,
  "Al": 8372,
  "].": 8373,
  "АР": 8374,
  "кт": 8375,
  "▁Q": 8376,
  "-4)": 8377,
  "/32": 8378,
  "00,": 8379,
  "20.": 8380,
  "600": 8381,
  "=3,": 8382,
  "=4.": 8383,
  "cur": 8384,
  "duc": 8385,
  "imp": 8386,
  "let": 8387,
  "mel": 8388,
  "ods": 8389,
  "ogy": 8390,
  "бае": 8391,
  "бек": 8392,
  "дка": 8393,
  "дки": 8394,
  "люд": 8395,
  "рез": 8396,
  "рен": 8397,
  "рет": 8398,
  "тии": 8399,
  "чку": 8400,
  "шен": 8401,
  "щую": 8402,
  "▁-4": 8403,
  "▁-6": 8404,
  "▁7)": 8405,
  "▁=>": 8406,
  "▁ob": 8407,
  "▁Ну": 8408,
  "▁ей": 8409,
  "/32.": 8410,
  "0.8)": 8411,
  "anya": 8412,
  "json": 8413,
  "lose": 8414,
  "orov": 8415,
  "pend": 8416,
  "urat": 8417,
  "ензи": 8418,
  "жари": 8419,
  "лоси": 8420,
  "ници": 8421,
  "нять": 8422,
  "поря": 8423,
  "слан": 8424,
  "тной": 8425,
  "▁'0.": 8426,
  "▁(30": 8427,
  "▁(40": 8428,
  "▁16:": 8429,
  "▁197": 8430,
  "▁199": 8431,
  "▁19:": 8432,
  "▁23)": 8433,
  "▁234": 8434,
  "▁253": 8435,
  "▁27?": 8436,
  "▁355": 8437,
  "▁357": 8438,
  "▁378": 8439,
  "▁380": 8440,
  "▁41:": 8441,
  "▁42,": 8442,
  "▁436": 8443,
  "▁44)": 8444,
  "▁45)": 8445,
  "▁53)": 8446,
  "▁54:": 8447,
  "▁60%": 8448,
  "▁63.": 8449,
  "▁69)": 8450,
  "▁73)": 8451,
  "▁81,": 8452,
  "▁84)": 8453,
  "▁84:": 8454,
  "▁86.": 8455,
  "▁88:": 8456,
  "▁90:": 8457,
  "▁94:": 8458,
  "▁96.": 8459,
  "▁EOF": 8460,
  "▁avo": 8461,
  "▁fin": 8462,
  "▁him": 8463,
  "▁saw": 8464,
  "▁vol": 8465,
  "▁Ком": 8466,
  "▁Рас": 8467,
  "▁буф": 8468,
  "▁вне": 8469,
  "▁деж": 8470,
  "▁лам": 8471,
  "▁лом": 8472,
  "▁обы": 8473,
  "▁тек": 8474,
  "▁тем": 8475,
  "▁экс": 8476,
  "icode": 8477,
  "oline": 8478,
  "ology": 8479,
  "orted": 8480,
  "secut": 8481,
  "there": 8482,
  "white": 8483,
  "ббота": 8484,
  "голов": 8485,
  "дится": 8486,
  "енное": 8487,
  "завис": 8488,
  "льным": 8489,
  "▁'0,3": 8490,
  "▁1/2.": 8491,
  "▁102:": 8492,
  "▁312.": 8493,
  "▁arms": 8494,
  "▁been": 8495,
  "▁card": 8496,
  "▁cell": 8497,
  "▁coin": 8498,
  "▁keys": 8499,
  "▁link": 8500,
  "▁pers": 8501,
  "▁puff": 8502,
  "▁said": 8503,
  "▁sell": 8504,
  "▁star": 8505,
  "▁взял": 8506,
  "▁жить": 8507,
  "▁зеле": 8508,
  "▁игры": 8509,
  "▁круг": 8510,
  "▁тоже": 8511,
  "▁цену": 8512,
  "ваются": 8513,
  "енного": 8514,
  "мотрим": 8515,
  "нимает": 8516,
  "ствова": 8517,
  "▁Kanat": 8518,
  "▁Murat": 8519,
  "▁added": 8520,
  "▁birds": 8521,
  "▁built": 8522,
  "▁euros": 8523,
  "▁fired": 8524,
  "▁songs": 8525,
  "▁votes": 8526,
  "▁Каким": 8527,
  "▁Канат": 8528,
  "▁выпад": 8529,
  "▁вышел": 8530,
  "▁голов": 8531,
  "▁длина": 8532,
  "▁игрок": 8533,
  "▁импор": 8534,
  "▁книги": 8535,
  "▁книгу": 8536,
  "▁масса": 8537,
  "▁медиа": 8538,
  "▁одним": 8539,
  "▁слове": 8540,
  "▁целое": 8541,
  "▁шесть": 8542,
  "▁этаже": 8543,
  "▁Kaidar": 8544,
  "▁circle": 8545,
  "▁colors": 8546,
  "▁played": 8547,
  "▁shares": 8548,
  "▁всегда": 8549,
  "▁выигра": 8550,
  "▁города": 8551,
  "▁грядки": 8552,
  "▁десяти": 8553,
  "▁младше": 8554,
  "▁одному": 8555,
  "▁первых": 8556,
  "▁показа": 8557,
  "secutive": 8558,
  "ставляет": 8559,
  "▁Unicode": 8560,
  "▁located": 8561,
  "▁methods": 8562,
  "▁neither": 8563,
  "▁passing": 8564,
  "▁similar": 8565,
  "▁Медиана": 8566,
  "▁билетов": 8567,
  "▁другого": 8568,
  "▁желтого": 8569,
  "▁кубиков": 8570,
  "▁независ": 8571,
  "▁получил": 8572,
  "▁предмет": 8573,
  "▁цифрами": 8574,
  "▁choosing": 8575,
  "▁grandson": 8576,
  "▁previous": 8577,
  "▁received": 8578,
  "▁вытянуть": 8579,
  "▁делитель": 8580,
  "▁качестве": 8581,
  "▁нечетное": 8582,
  "▁символов": 8583,
  "▁carpenter": 8584,
  "▁collected": 8585,
  "▁decreased": 8586,
  "▁initializ": 8587,
  "▁оказались": 8588,
  "▁уравнений": 8589,
  "▁одинаковое": 8590,
  "▁составляем": 8591,
  "▁consecutive": 8592,
  "▁вероятности": 8593,
  "▁потребуется": 8594,
  "▁рукопожатия": 8595,
  "▁трехзначное": 8596,
  "▁вероятностью": 8597,
  "▁документации": 8598,
  "▁вопросительного": 8599,
  "!)": 8600,
  "-7": 8601,
  "/(": 8602,
  "18": 8603,
  "82": 8604,
  "93": 8605,
  "BA": 8606,
  "Re": 8607,
  "SO": 8608,
  "go": 8609,
  "ia": 8610,
  "rc": 8611,
  "АК": 8612,
  "ех": 8613,
  "иф": 8614,
  "яд": 8615,
  "*14": 8616,
  "*50": 8617,
  "+00": 8618,
  "+17": 8619,
  "+2,": 8620,
  "+22": 8621,
  "+5)": 8622,
  "+50": 8623,
  "/(1": 8624,
  "/40": 8625,
  "/64": 8626,
  "/8.": 8627,
  "24.": 8628,
  "32.": 8629,
  "=6,": 8630,
  "=75": 8631,
  "=8.": 8632,
  "auc": 8633,
  "ded": 8634,
  "erb": 8635,
  "gon": 8636,
  "oll": 8637,
  "ont": 8638,
  "ren": 8639,
  "бой": 8640,
  "вед": 8641,
  "дых": 8642,
  "жит": 8643,
  "нат": 8644,
  "оне": 8645,
  "пла": 8646,
  "руг": 8647,
  "шая": 8648,
  "ыми": 8649,
  "▁3%": 8650,
  "▁5-": 8651,
  "▁7!": 8652,
  "▁ho": 8653,
  "▁Ди": 8654,
  "▁Пр": 8655,
  "▁ки": 8656,
  "▁пи": 8657,
  "!/2!": 8658,
  "*0.1": 8659,
  "*0.5": 8660,
  "*0.8": 8661,
  "*3*5": 8662,
  "*5*4": 8663,
  "+3+4": 8664,
  "/19.": 8665,
  "/21*": 8666,
  "/4=1": 8667,
  "10',": 8668,
  "99',": 8669,
  "=64,": 8670,
  "Read": 8671,
  "aced": 8672,
  "aira": 8673,
  "down": 8674,
  "enar": 8675,
  "esec": 8676,
  "ides": 8677,
  "iece": 8678,
  "ient": 8679,
  "imir": 8680,
  "team": 8681,
  "баев": 8682,
  "ваем": 8683,
  "колы": 8684,
  "нтак": 8685,
  "обра": 8686,
  "пыта": 8687,
  "руем": 8688,
  "стан": 8689,
  "тика": 8690,
  "черк": 8691,
  "▁'16": 8692,
  "▁'29": 8693,
  "▁'34": 8694,
  "▁'40": 8695,
  "▁(',": 8696,
  "▁(17": 8697,
  "▁(4,": 8698,
  "▁1.6": 8699,
  "▁14)": 8700,
  "▁15:": 8701,
  "▁16)": 8702,
  "▁18)": 8703,
  "▁1^2": 8704,
  "▁2*2": 8705,
  "▁20,": 8706,
  "▁219": 8707,
  "▁22,": 8708,
  "▁227": 8709,
  "▁243": 8710,
  "▁249": 8711,
  "▁25,": 8712,
  "▁275": 8713,
  "▁28:": 8714,
  "▁3/8": 8715,
  "▁319": 8716,
  "▁328": 8717,
  "▁33)": 8718,
  "▁352": 8719,
  "▁36)": 8720,
  "▁36,": 8721,
  "▁369": 8722,
  "▁38:": 8723,
  "▁39.": 8724,
  "▁399": 8725,
  "▁401": 8726,
  "▁416": 8727,
  "▁430": 8728,
  "▁43:": 8729,
  "▁46)": 8730,
  "▁6*6": 8731,
  "▁65)": 8732,
  "▁65:": 8733,
  "▁715": 8734,
  "▁74:": 8735,
  "▁750": 8736,
  "▁9*9": 8737,
  "▁99:": 8738,
  "▁Sal": 8739,
  "▁URL": 8740,
  "▁cup": 8741,
  "▁dou": 8742,
  "▁eff": 8743,
  "▁lay": 8744,
  "▁met": 8745,
  "▁sca": 8746,
  "▁spo": 8747,
  "▁src": 8748,
  "▁Кем": 8749,
  "▁Ряд": 8750,
  "▁бло": 8751,
  "▁лит": 8752,
  "▁нее": 8753,
  "▁оба": 8754,
  "▁сда": 8755,
  "▁сут": 8756,
  "▁эту": 8757,
  "/100)": 8758,
  "/11',": 8759,
  "/120.": 8760,
  "/19',": 8761,
  "<2019": 8762,
  "=120.": 8763,
  "arova": 8764,
  "clock": 8765,
  "dreds": 8766,
  "ested": 8767,
  "onday": 8768,
  "range": 8769,
  "вания": 8770,
  "нного": 8771,
  "почек": 8772,
  "пуска": 8773,
  "равен": 8774,
  "▁'9/2": 8775,
  "▁0.12": 8776,
  "▁1-0.": 8777,
  "▁1.25": 8778,
  "▁100,": 8779,
  "▁101:": 8780,
  "▁110:": 8781,
  "▁111:": 8782,
  "▁130:": 8783,
  "▁148:": 8784,
  "▁154:": 8785,
  "▁16',": 8786,
  "▁2/5.": 8787,
  "▁20',": 8788,
  "▁2017": 8789,
  "▁320.": 8790,
  "▁3500": 8791,
  "▁They": 8792,
  "▁Vlad": 8793,
  "▁['20": 8794,
  "▁area": 8795,
  "▁cars": 8796,
  "▁goes": 8797,
  "▁inst": 8798,
  "▁mush": 8799,
  "▁past": 8800,
  "▁pull": 8801,
  "▁sauc": 8802,
  "▁spec": 8803,
  "▁term": 8804,
  "▁wins": 8805,
  "▁Дина": 8806,
  "▁запя": 8807,
  "▁клет": 8808,
  "▁нуле": 8809,
  "▁поез": 8810,
  "▁цене": 8811,
  "/6=1/2": 8812,
  "nament": 8813,
  "вается": 8814,
  "ленных": 8815,
  "недель": 8816,
  "порядо": 8817,
  "прияти": 8818,
  "ческих": 8819,
  "▁'15']": 8820,
  "▁'18']": 8821,
  "▁'21']": 8822,
  "▁'28']": 8823,
  "▁'60']": 8824,
  "▁'68',": 8825,
  "▁'96',": 8826,
  "▁Masha": 8827,
  "▁Tanya": 8828,
  "▁Three": 8829,
  "▁['1/1": 8830,
  "▁doesn": 8831,
  "▁faces": 8832,
  "▁heads": 8833,
  "▁makes": 8834,
  "▁piece": 8835,
  "▁sixth": 8836,
  "▁Влади": 8837,
  "▁бензи": 8838,
  "▁дежур": 8839,
  "▁иници": 8840,
  "▁какое": 8841,
  "▁купил": 8842,
  "▁лагер": 8843,
  "▁нечёт": 8844,
  "▁обоих": 8845,
  "▁отдых": 8846,
  "▁равны": 8847,
  "▁сосед": 8848,
  "▁среза": 8849,
  "▁трети": 8850,
  "▁турни": 8851,
  "▁четыр": 8852,
  "▁школы": 8853,
  "pendent": 8854,
  "нтаксис": 8855,
  "▁'0,4',": 8856,
  "▁'100',": 8857,
  "▁'3/5',": 8858,
  "▁'4/5',": 8859,
  "▁'600',": 8860,
  "▁'720',": 8861,
  "▁4!=24.": 8862,
  "▁999999": 8863,
  "▁Median": 8864,
  "▁['28',": 8865,
  "▁buffer": 8866,
  "▁danced": 8867,
  "▁mother": 8868,
  "▁person": 8869,
  "▁player": 8870,
  "▁source": 8871,
  "▁volume": 8872,
  "▁Алдияр": 8873,
  "▁Каждый": 8874,
  "▁велоси": 8875,
  "▁группе": 8876,
  "▁детали": 8877,
  "▁массив": 8878,
  "▁машина": 8879,
  "▁месяца": 8880,
  "▁называ": 8881,
  "▁обменя": 8882,
  "▁первые": 8883,
  "▁переме": 8884,
  "▁сочета": 8885,
  "▁справа": 8886,
  "▁ученик": 8887,
  "▁чтения": 8888,
  "▁шарика": 8889,
  "динствен": 8890,
  "значного": 8891,
  "казалось": 8892,
  "становок": 8893,
  "▁'0,25',": 8894,
  "▁'1/10',": 8895,
  "▁['1/6',": 8896,
  "▁algebra": 8897,
  "▁arrange": 8898,
  "▁cheesec": 8899,
  "▁getting": 8900,
  "▁knuckle": 8901,
  "▁looking": 8902,
  "▁painter": 8903,
  "▁planted": 8904,
  "▁plumber": 8905,
  "▁proport": 8906,
  "▁наудачу": 8907,
  "▁позиции": 8908,
  "▁попадёт": 8909,
  "▁пройдет": 8910,
  "▁простое": 8911,
  "▁расписа": 8912,
  "▁столько": 8913,
  "▁условии": 8914,
  "▁электро": 8915,
  "▁Vladimir": 8916,
  "▁consists": 8917,
  "▁determin": 8918,
  "▁gasoline": 8919,
  "▁hundreds": 8920,
  "▁mushroom": 8921,
  "▁returned": 8922,
  "▁triangle": 8923,
  "▁variants": 8924,
  "▁выпадает": 8925,
  "▁долларов": 8926,
  "▁третьего": 8927,
  "▁упаковки": 8928,
  "▁favorable": 8929,
  "▁guarantee": 8930,
  "▁represent": 8931,
  "▁выпадения": 8932,
  "▁геометрии": 8933,
  "▁карточках": 8934,
  "▁поражения": 8935,
  "▁последней": 8936,
  "▁случайным": 8937,
  "▁percentage": 8938,
  "▁tournament": 8939,
  "▁благоприят": 8940,
  "▁воскресень": 8941,
  "▁изначально": 8942,
  "▁комбинаций": 8943,
  "▁составляют": 8944,
  "▁independent": 8945,
  "▁multiplying": 8946,
  "▁Подставляем": 8947,
  "-6": 8948,
  "14": 8949,
  "6-": 8950,
  "<1": 8951,
  "EN": 8952,
  "In": 8953,
  "SH": 8954,
  "^(": 8955,
  "dy": 8956,
  "po": 8957,
  "ps": 8958,
  "rd": 8959,
  "ru": 8960,
  "tt": 8961,
  "иц": 8962,
  "кр": 8963,
  "ёр": 8964,
  "-11": 8965,
  "-28": 8966,
  "edn": 8967,
  "lex": 8968,
  "rat": 8969,
  "ura": 8970,
  "бед": 8971,
  "дел": 8972,
  "зей": 8973,
  "кам": 8974,
  "лая": 8975,
  "лей": 8976,
  "мок": 8977,
  "пал": 8978,
  "тым": 8979,
  "фик": 8980,
  "▁'-": 8981,
  "▁5%": 8982,
  "▁Be": 8983,
  "▁bi": 8984,
  "▁уг": 8985,
  "▁ши": 8986,
  "=120": 8987,
  "=18.": 8988,
  "alym": 8989,
  "avyd": 8990,
  "blue": 8991,
  "icol": 8992,
  "ided": 8993,
  "ikol": 8994,
  "inds": 8995,
  "omes": 8996,
  "omin": 8997,
  "orth": 8998,
  "ular": 8999,
  "veta": 9000,
  "алым": 9001,
  "лого": 9002,
  "мира": 9003,
  "ницу": 9004,
  "няет": 9005,
  "рико": 9006,
  "тает": 9007,
  "тера": 9008,
  "циях": 9009,
  "ющие": 9010,
  "▁(1)": 9011,
  "▁(27": 9012,
  "▁(32": 9013,
  "▁0.4": 9014,
  "▁13:": 9015,
  "▁13;": 9016,
  "▁184": 9017,
  "▁212": 9018,
  "▁226": 9019,
  "▁229": 9020,
  "▁23;": 9021,
  "▁26.": 9022,
  "▁265": 9023,
  "▁290": 9024,
  "▁295": 9025,
  "▁297": 9026,
  "▁3',": 9027,
  "▁3/5": 9028,
  "▁30:": 9029,
  "▁31,": 9030,
  "▁312": 9031,
  "▁313": 9032,
  "▁333": 9033,
  "▁354": 9034,
  "▁368": 9035,
  "▁384": 9036,
  "▁395": 9037,
  "▁39?": 9038,
  "▁40,": 9039,
  "▁41)": 9040,
  "▁43)": 9041,
  "▁43.": 9042,
  "▁49)": 9043,
  "▁492": 9044,
  "▁493": 9045,
  "▁5',": 9046,
  "▁504": 9047,
  "▁53?": 9048,
  "▁54?": 9049,
  "▁58)": 9050,
  "▁70,": 9051,
  "▁700": 9052,
  "▁76:": 9053,
  "▁93)": 9054,
  "▁Num": 9055,
  "▁bal": 9056,
  "▁fit": 9057,
  "▁pan": 9058,
  "▁pen": 9059,
  "▁био": 9060,
  "▁гер": 9061,
  "▁дал": 9062,
  "▁жет": 9063,
  "▁пеш": 9064,
  "▁сох": 9065,
  "▁шах": 9066,
  "▁яиц": 9067,
  "alent": 9068,
  "anged": 9069,
  "arily": 9070,
  "ivers": 9071,
  "jects": 9072,
  "kdown": 9073,
  "veral": 9074,
  "ализа": 9075,
  "дияра": 9076,
  "енный": 9077,
  "лотых": 9078,
  "надоб": 9079,
  "телей": 9080,
  "ходят": 9081,
  "шение": 9082,
  "щихся": 9083,
  "▁'0,1": 9084,
  "▁0.4.": 9085,
  "▁103:": 9086,
  "▁118:": 9087,
  "▁119:": 9088,
  "▁121:": 9089,
  "▁132:": 9090,
  "▁133:": 9091,
  "▁135:": 9092,
  "▁146:": 9093,
  "▁150.": 9094,
  "▁153:": 9095,
  "▁1800": 9096,
  "▁Note": 9097,
  "▁With": 9098,
  "▁coat": 9099,
  "▁comm": 9100,
  "▁doll": 9101,
  "▁done": 9102,
  "▁exch": 9103,
  "▁gold": 9104,
  "▁perm": 9105,
  "▁rout": 9106,
  "▁stop": 9107,
  "▁task": 9108,
  "▁tons": 9109,
  "▁Нико": 9110,
  "▁блюд": 9111,
  "▁втор": 9112,
  "▁доба": 9113,
  "▁жена": 9114,
  "▁моду": 9115,
  "▁подо": 9116,
  "▁семи": 9117,
  "▁съел": 9118,
  "▁физи": 9119,
  "▁часы": 9120,
  "avydov": 9121,
  "edorov": 9122,
  "enario": 9123,
  "ically": 9124,
  "mitted": 9125,
  "едение": 9126,
  "лгебра": 9127,
  "льными": 9128,
  "ческой": 9129,
  "▁Close": 9130,
  "▁Marat": 9131,
  "▁Nikol": 9132,
  "▁Sveta": 9133,
  "▁chess": 9134,
  "▁desks": 9135,
  "▁falls": 9136,
  "▁inequ": 9137,
  "▁kinds": 9138,
  "▁occur": 9139,
  "▁pears": 9140,
  "▁reach": 9141,
  "▁roads": 9142,
  "▁satis": 9143,
  "▁unind": 9144,
  "▁Кемел": 9145,
  "▁Мурат": 9146,
  "▁Нужно": 9147,
  "▁Перво": 9148,
  "▁Числа": 9149,
  "▁берез": 9150,
  "▁запол": 9151,
  "▁имена": 9152,
  "▁кодов": 9153,
  "▁любой": 9154,
  "▁набор": 9155,
  "▁новую": 9156,
  "▁предо": 9157,
  "▁пробе": 9158,
  "▁произ": 9159,
  "▁снова": 9160,
  "▁сыгра": 9161,
  "▁файла": 9162,
  "▁химию": 9163,
  "▁часто": 9164,
  "алымжан": 9165,
  "кольких": 9166,
  "▁'0,5',": 9167,
  "▁Dinara": 9168,
  "▁constr": 9169,
  "▁contin": 9170,
  "▁double": 9171,
  "▁dragon": 9172,
  "▁filled": 9173,
  "▁memory": 9174,
  "▁option": 9175,
  "▁syntax": 9176,
  "▁Провер": 9177,
  "▁выбира": 9178,
  "▁литров": 9179,
  "▁метода": 9180,
  "▁орехов": 9181,
  "▁первую": 9182,
  "▁текста": 9183,
  "▁цветов": 9184,
  "alymzhan": 9185,
  "▁Tuesday": 9186,
  "▁biology": 9187,
  "▁birches": 9188,
  "▁denomin": 9189,
  "▁present": 9190,
  "▁reduced": 9191,
  "▁semicol": 9192,
  "▁started": 9193,
  "▁Соответ": 9194,
  "▁бензина": 9195,
  "▁биологи": 9196,
  "▁девочка": 9197,
  "▁заданий": 9198,
  "▁золотых": 9199,
  "▁комнате": 9200,
  "▁конфеты": 9201,
  "▁которую": 9202,
  "▁кратных": 9203,
  "▁мальчик": 9204,
  "▁медиану": 9205,
  "▁находим": 9206,
  "▁неравен": 9207,
  "▁скамеек": 9208,
  "▁собрала": 9209,
  "▁числами": 9210,
  "▁Askarova": 9211,
  "▁answered": 9212,
  "▁dominoes": 9213,
  "▁fraction": 9214,
  "▁scenario": 9215,
  "▁separate": 9216,
  "▁Вычислим": 9217,
  "▁квартира": 9218,
  "▁номерами": 9219,
  "▁подъезде": 9220,
  "▁последую": 9221,
  "▁содержат": 9222,
  "▁треуголь": 9223,
  "▁Initially": 9224,
  "▁numerical": 9225,
  "▁обозначим": 9226,
  "▁последова": 9227,
  "▁программы": 9228,
  "▁равняется": 9229,
  "▁разделить": 9230,
  "▁следующим": 9231,
  "▁сочетаний": 9232,
  "▁структуры": 9233,
  "▁указатель": 9234,
  "▁inequality": 9235,
  "▁Комментари": 9236,
  "▁Получается": 9237,
  "▁одинаковых": 9238,
  "▁переменной": 9239,
  "▁indentation": 9240,
  "▁necessarily": 9241,
  "▁правильного": 9242,
  "▁утверждение": 9243,
  "▁соответствую": 9244,
  "!,": 9245,
  ")?": 9246,
  ",5": 9247,
  ".,": 9248,
  "=0": 9249,
  "?)": 9250,
  "It": 9251,
  "PI": 9252,
  "],": 9253,
  "ад": 9254,
  "аз": 9255,
  ")+3": 9256,
  "*40": 9257,
  "+1,": 9258,
  "+11": 9259,
  "+30": 9260,
  "-14": 9261,
  "-15": 9262,
  "/16": 9263,
  "/25": 9264,
  "/28": 9265,
  "/36": 9266,
  "001": 9267,
  "9/1": 9268,
  ":9)": 9269,
  "=(2": 9270,
  "=13": 9271,
  "=3.": 9272,
  "=34": 9273,
  "=5.": 9274,
  "=96": 9275,
  "SON": 9276,
  "^2=": 9277,
  "air": 9278,
  "aks": 9279,
  "cow": 9280,
  "icy": 9281,
  "rag": 9282,
  "row": 9283,
  "акс": 9284,
  "еша": 9285,
  "жем": 9286,
  "зку": 9287,
  "мую": 9288,
  "нчи": 9289,
  "отя": 9290,
  "тое": 9291,
  "шел": 9292,
  "ясь": 9293,
  "▁'0": 9294,
  "▁(0": 9295,
  "▁--": 9296,
  "▁ki": 9297,
  "+2+1": 9298,
  "-3)!": 9299,
  "-800": 9300,
  "/120": 9301,
  "/2',": 9302,
  "/4',": 9303,
  "0,5)": 9304,
  "32',": 9305,
  "6000": 9306,
  "68',": 9307,
  "81',": 9308,
  "=1/1": 9309,
  "=20.": 9310,
  "=21.": 9311,
  "=36,": 9312,
  "=81,": 9313,
  "File": 9314,
  "ault": 9315,
  "cles": 9316,
  "ever": 9317,
  "ffix": 9318,
  "gest": 9319,
  "oran": 9320,
  "oted": 9321,
  "буля": 9322,
  "дают": 9323,
  "ешев": 9324,
  "кона": 9325,
  "лено": 9326,
  "моби": 9327,
  "нием": 9328,
  "овом": 9329,
  "сток": 9330,
  "утбо": 9331,
  "фика": 9332,
  "хали": 9333,
  "ябре": 9334,
  "ётся": 9335,
  "▁'19": 9336,
  "▁'37": 9337,
  "▁'45": 9338,
  "▁(0,": 9339,
  "▁(22": 9340,
  "▁(28": 9341,
  "▁(3,": 9342,
  "▁(5,": 9343,
  "▁(60": 9344,
  "▁0.9": 9345,
  "▁10;": 9346,
  "▁17)": 9347,
  "▁19;": 9348,
  "▁2/5": 9349,
  "▁215": 9350,
  "▁21:": 9351,
  "▁230": 9352,
  "▁23:": 9353,
  "▁24:": 9354,
  "▁258": 9355,
  "▁263": 9356,
  "▁282": 9357,
  "▁28?": 9358,
  "▁29)": 9359,
  "▁29:": 9360,
  "▁2^3": 9361,
  "▁2^5": 9362,
  "▁301": 9363,
  "▁315": 9364,
  "▁32:": 9365,
  "▁33,": 9366,
  "▁347": 9367,
  "▁370": 9368,
  "▁39)": 9369,
  "▁392": 9370,
  "▁3^2": 9371,
  "▁3^3": 9372,
  "▁406": 9373,
  "▁419": 9374,
  "▁438": 9375,
  "▁44,": 9376,
  "▁444": 9377,
  "▁445": 9378,
  "▁455": 9379,
  "▁465": 9380,
  "▁483": 9381,
  "▁49%": 9382,
  "▁499": 9383,
  "▁4^4": 9384,
  "▁5*5": 9385,
  "▁5.5": 9386,
  "▁505": 9387,
  "▁52)": 9388,
  "▁59)": 9389,
  "▁6.5": 9390,
  "▁62?": 9391,
  "▁63?": 9392,
  "▁656": 9393,
  "▁70.": 9394,
  "▁71)": 9395,
  "▁75%": 9396,
  "▁75.": 9397,
  "▁75?": 9398,
  "▁9.5": 9399,
  "▁92.": 9400,
  "▁98:": 9401,
  "▁Mad": 9402,
  "▁Oly": 9403,
  "▁Sep": 9404,
  "▁adj": 9405,
  "▁dec": 9406,
  "▁ext": 9407,
  "▁far": 9408,
  "▁few": 9409,
  "▁foo": 9410,
  "▁lin": 9411,
  "▁whe": 9412,
  "▁Бел": 9413,
  "▁Они": 9414,
  "▁гор": 9415,
  "▁дра": 9416,
  "▁лег": 9417,
  "▁мат": 9418,
  "▁меш": 9419,
  "▁пли": 9420,
  "▁ски": 9421,
  "▁сли": 9422,
  "▁теч": 9423,
  "▁хва": 9424,
  "▁чле": 9425,
  "*10=1": 9426,
  "/14',": 9427,
  "/16',": 9428,
  "/17',": 9429,
  "/36',": 9430,
  "840',": 9431,
  "=150,": 9432,
  "arter": 9433,
  "ected": 9434,
  "ester": 9435,
  "olded": 9436,
  "oscow": 9437,
  "point": 9438,
  "ricot": 9439,
  "third": 9440,
  "tings": 9441,
  "дцать": 9442,
  "жении": 9443,
  "оворо": 9444,
  "увели": 9445,
  "щения": 9446,
  "▁'320": 9447,
  "▁(114": 9448,
  "▁(136": 9449,
  "▁....": 9450,
  "▁0.2.": 9451,
  "▁100:": 9452,
  "▁114:": 9453,
  "▁12/1": 9454,
  "▁120:": 9455,
  "▁138:": 9456,
  "▁140:": 9457,
  "▁17/3": 9458,
  "▁3075": 9459,
  "▁406.": 9460,
  "▁495.": 9461,
  "▁720.": 9462,
  "▁Yura": 9463,
  "▁adds": 9464,
  "▁conn": 9465,
  "▁desk": 9466,
  "▁educ": 9467,
  "▁just": 9468,
  "▁pear": 9469,
  "▁ring": 9470,
  "▁sage": 9471,
  "▁Ниет": 9472,
  "▁абза": 9473,
  "▁бабу": 9474,
  "▁верх": 9475,
  "▁всад": 9476,
  "▁выпе": 9477,
  "▁кавы": 9478,
  "▁мага": 9479,
  "▁мест": 9480,
  "▁ними": 9481,
  "▁пары": 9482,
  "▁пуст": 9483,
  "▁разв": 9484,
  "▁свои": 9485,
  "▁сент": 9486,
  "▁ступ": 9487,
  "▁сумм": 9488,
  "▁сына": 9489,
  "▁урны": 9490,
  "▁хоть": 9491,
  "*1/2=1": 9492,
  "Reader": 9493,
  "paring": 9494,
  "tember": 9495,
  "ursday": 9496,
  "ждения": 9497,
  "зывает": 9498,
  "мерова": 9499,
  "станов": 9500,
  "▁'20']": 9501,
  "▁'23']": 9502,
  "▁'31',": 9503,
  "▁'32']": 9504,
  "▁'35',": 9505,
  "▁'40',": 9506,
  "▁'45',": 9507,
  "▁'45']": 9508,
  "▁'75',": 9509,
  "▁Kemel": 9510,
  "▁Maira": 9511,
  "▁Manat": 9512,
  "▁These": 9513,
  "▁batch": 9514,
  "▁codes": 9515,
  "▁fruit": 9516,
  "▁lists": 9517,
  "▁meter": 9518,
  "▁seats": 9519,
  "▁shows": 9520,
  "▁store": 9521,
  "▁under": 9522,
  "▁whole": 9523,
  "▁Итого": 9524,
  "▁Какая": 9525,
  "▁Султа": 9526,
  "▁банке": 9527,
  "▁брата": 9528,
  "▁броса": 9529,
  "▁длину": 9530,
  "▁доски": 9531,
  "▁метод": 9532,
  "▁отнош": 9533,
  "▁приба": 9534,
  "▁разме": 9535,
  "▁собой": 9536,
  "▁сорта": 9537,
  "▁стоят": 9538,
  "▁таким": 9539,
  "▁точки": 9540,
  "▁умень": 9541,
  "▁управ": 9542,
  "▁физку": 9543,
  "▁целым": 9544,
  "*0.2=0.": 9545,
  "+8+8+10": 9546,
  "Algebra": 9547,
  "Enterpr": 9548,
  "oranbek": 9549,
  "значным": 9550,
  "ложение": 9551,
  "положим": 9552,
  "тельные": 9553,
  "уменьши": 9554,
  "▁'0,2',": 9555,
  "▁'0,3',": 9556,
  "▁'120']": 9557,
  "▁'150',": 9558,
  "▁'3/8',": 9559,
  "▁'300',": 9560,
  "▁'5/7',": 9561,
  "▁'600']": 9562,
  "▁Friday": 9563,
  "▁Rustem": 9564,
  "▁Sultan": 9565,
  "▁['17',": 9566,
  "▁['64',": 9567,
  "▁begins": 9568,
  "▁hollow": 9569,
  "▁making": 9570,
  "▁marker": 9571,
  "▁others": 9572,
  "▁pencil": 9573,
  "▁permut": 9574,
  "▁Первая": 9575,
  "▁Первый": 9576,
  "▁абрико": 9577,
  "▁белого": 9578,
  "▁верное": 9579,
  "▁взятых": 9580,
  "▁вторая": 9581,
  "▁деталь": 9582,
  "▁другие": 9583,
  "▁друзей": 9584,
  "▁каждым": 9585,
  "▁набора": 9586,
  "▁образу": 9587,
  "▁отступ": 9588,
  "▁печати": 9589,
  "▁секунд": 9590,
  "▁ссылки": 9591,
  "▁табуля": 9592,
  "▁такого": 9593,
  "▁худший": 9594,
  "▁членом": 9595,
  "ednesday": 9596,
  "▁'1/12',": 9597,
  "▁'9/14',": 9598,
  "▁1000000": 9599,
  "▁5!=120.": 9600,
  "▁['0,1',": 9601,
  "▁['100',": 9602,
  "▁['2/5',": 9603,
  "▁['3/7',": 9604,
  "▁apricot": 9605,
  "▁default": 9606,
  "▁peaches": 9607,
  "▁выигрыш": 9608,
  "▁дедушки": 9609,
  "▁деревья": 9610,
  "▁дракона": 9611,
  "▁заголов": 9612,
  "▁запятой": 9613,
  "▁кармане": 9614,
  "▁котором": 9615,
  "▁красный": 9616,
  "▁медиана": 9617,
  "▁минимум": 9618,
  "▁найдите": 9619,
  "▁останов": 9620,
  "▁понадоб": 9621,
  "▁потрати": 9622,
  "▁примеру": 9623,
  "▁сковоро": 9624,
  "▁стрелки": 9625,
  "▁турнире": 9626,
  "▁уменьши": 9627,
  "▁формулу": 9628,
  "▁цветных": 9629,
  "<2017+201": 9630,
  "изведение": 9631,
  "▁Markdown": 9632,
  "▁indented": 9633,
  "▁physical": 9634,
  "▁presence": 9635,
  "▁printing": 9636,
  "▁youngest": 9637,
  "▁Аскарова": 9638,
  "▁ватрушек": 9639,
  "▁делиться": 9640,
  "▁зеленого": 9641,
  "▁написаны": 9642,
  "▁отступов": 9643,
  "▁персиков": 9644,
  "▁показыва": 9645,
  "▁сентябре": 9646,
  "▁составит": 9647,
  "▁учащихся": 9648,
  "▁учебника": 9649,
  "▁человека": 9650,
  "babilities": 9651,
  "увеличится": 9652,
  "▁Galymzhan": 9653,
  "▁September": 9654,
  "▁education": 9655,
  "▁handshake": 9656,
  "▁important": 9657,
  "▁including": 9658,
  "▁mushrooms": 9659,
  "▁preparing": 9660,
  "▁выбранная": 9661,
  "▁маленьких": 9662,
  "▁останется": 9663,
  "▁попадания": 9664,
  "▁следующем": 9665,
  "▁составили": 9666,
  "▁учитывать": 9667,
  "▁Alshynbaev": 9668,
  "▁Arithmetic": 9669,
  "▁characters": 9670,
  "▁unindented": 9671,
  "▁двузначных": 9672,
  "▁комбинации": 9673,
  "▁начинаются": 9674,
  "▁нескольких": 9675,
  "▁прогрессии": 9676,
  "▁Accordingly": 9677,
  "▁cheesecakes": 9678,
  "▁declaration": 9679,
  "▁denominator": 9680,
  "▁натуральное": 9681,
  "▁повторяться": 9682,
  "▁используются": 9683,
  "▁перестановок": 9684,
  "AA": 9685,
  "AR": 9686,
  "BB": 9687,
  "EM": 9688,
  "co": 9689,
  "lt": 9690,
  "ВВ": 9691,
  "На": 9692,
  "ас": 9693,
  "(12": 9694,
  "(6,": 9695,
  "*1.": 9696,
  "+(1": 9697,
  "-16": 9698,
  "126": 9699,
  "14.": 9700,
  "2)!": 9701,
  "36.": 9702,
  "90.": 9703,
  ":00": 9704,
  "ANA": 9705,
  "dar": 9706,
  "doc": 9707,
  "ila": 9708,
  "img": 9709,
  "ned": 9710,
  "que": 9711,
  "rel": 9712,
  "Имя": 9713,
  "Это": 9714,
  "аны": 9715,
  "жар": 9716,
  "зна": 9717,
  "кур": 9718,
  "лча": 9719,
  "лях": 9720,
  "пос": 9721,
  "рыс": 9722,
  "сят": 9723,
  "цен": 9724,
  "юль": 9725,
  "▁3*": 9726,
  "▁Ch": 9727,
  "▁Di": 9728,
  "▁Ми": 9729,
  "▁ап": 9730,
  "+5+6": 9731,
  "-100": 9732,
  "/5']": 9733,
  "2,5%": 9734,
  "=320": 9735,
  "Name": 9736,
  "adie": 9737,
  "ards": 9738,
  "arys": 9739,
  "avlo": 9740,
  "erik": 9741,
  "face": 9742,
  "gart": 9743,
  "iply": 9744,
  "irts": 9745,
  "ized": 9746,
  "khan": 9747,
  "rary": 9748,
  "wise": 9749,
  "work": 9750,
  "авло": 9751,
  "гере": 9752,
  "дной": 9753,
  "емое": 9754,
  "жаем": 9755,
  "жена": 9756,
  "лили": 9757,
  "ложе": 9758,
  "лючи": 9759,
  "нача": 9760,
  "нжар": 9761,
  "номи": 9762,
  "нуку": 9763,
  "ской": 9764,
  "стом": 9765,
  "тный": 9766,
  "тора": 9767,
  "утся": 9768,
  "фект": 9769,
  "цова": 9770,
  "▁(24": 9771,
  "▁11)": 9772,
  "▁2).": 9773,
  "▁21;": 9774,
  "▁25)": 9775,
  "▁269": 9776,
  "▁27)": 9777,
  "▁280": 9778,
  "▁283": 9779,
  "▁291": 9780,
  "▁293": 9781,
  "▁303": 9782,
  "▁305": 9783,
  "▁309": 9784,
  "▁311": 9785,
  "▁324": 9786,
  "▁33.": 9787,
  "▁332": 9788,
  "▁342": 9789,
  "▁358": 9790,
  "▁364": 9791,
  "▁393": 9792,
  "▁396": 9793,
  "▁409": 9794,
  "▁412": 9795,
  "▁414": 9796,
  "▁418": 9797,
  "▁43?": 9798,
  "▁456": 9799,
  "▁464": 9800,
  "▁468": 9801,
  "▁482": 9802,
  "▁506": 9803,
  "▁50?": 9804,
  "▁51)": 9805,
  "▁51?": 9806,
  "▁53.": 9807,
  "▁54)": 9808,
  "▁60)": 9809,
  "▁60,": 9810,
  "▁64,": 9811,
  "▁66.": 9812,
  "▁667": 9813,
  "▁67)": 9814,
  "▁70?": 9815,
  "▁72?": 9816,
  "▁79:": 9817,
  "▁81)": 9818,
  "▁81.": 9819,
  "▁88)": 9820,
  "▁8^2": 9821,
  "▁90)": 9822,
  "▁95:": 9823,
  "▁96:": 9824,
  "▁Ais": 9825,
  "▁Dar": 9826,
  "▁Mak": 9827,
  "▁San": 9828,
  "▁Sum": 9829,
  "▁asc": 9830,
  "▁fry": 9831,
  "▁max": 9832,
  "▁won": 9833,
  "▁Ана": 9834,
  "▁Аси": 9835,
  "▁Вто": 9836,
  "▁бер": 9837,
  "▁вос": 9838,
  "▁дач": 9839,
  "▁лож": 9840,
  "▁миш": 9841,
  "▁наз": 9842,
  "▁пен": 9843,
  "▁пут": 9844,
  "▁сое": 9845,
  "▁сти": 9846,
  "▁умо": 9847,
  "▁уни": 9848,
  "▁шиф": 9849,
  "print": 9850,
  "белые": 9851,
  "графи": 9852,
  "диева": 9853,
  "енков": 9854,
  "енные": 9855,
  "истов": 9856,
  "кость": 9857,
  "падут": 9858,
  "стант": 9859,
  "стить": 9860,
  "телем": 9861,
  "читал": 9862,
  "▁(160": 9863,
  "▁(184": 9864,
  "▁(194": 9865,
  "▁0.15": 9866,
  "▁1.19": 9867,
  "▁104:": 9868,
  "▁108:": 9869,
  "▁1110": 9870,
  "▁112:": 9871,
  "▁113.": 9872,
  "▁124:": 9873,
  "▁125:": 9874,
  "▁126:": 9875,
  "▁139:": 9876,
  "▁144.": 9877,
  "▁149:": 9878,
  "▁15%,": 9879,
  "▁158:": 9880,
  "▁169:": 9881,
  "▁173:": 9882,
  "▁18-1": 9883,
  "▁182:": 9884,
  "▁250.": 9885,
  "▁270.": 9886,
  "▁399.": 9887,
  "▁480.": 9888,
  "▁8000": 9889,
  "▁Alma": 9890,
  "▁Anya": 9891,
  "▁Only": 9892,
  "▁arri": 9893,
  "▁bicy": 9894,
  "▁exec": 9895,
  "▁func": 9896,
  "▁ging": 9897,
  "▁hits": 9898,
  "▁mode": 9899,
  "▁occu": 9900,
  "▁sold": 9901,
  "▁всем": 9902,
  "▁даёт": 9903,
  "▁идет": 9904,
  "▁куба": 9905,
  "▁обла": 9906,
  "▁отли": 9907,
  "▁пиро": 9908,
  "▁появ": 9909,
  "▁прош": 9910,
  "▁свер": 9911,
  "▁свой": 9912,
  "▁сдал": 9913,
  "▁скоб": 9914,
  "▁слов": 9915,
  "▁сыну": 9916,
  "▁това": 9917,
  "▁уров": 9918,
  "▁фант": 9919,
  "▁фигу": 9920,
  "▁член": 9921,
  "000000": 9922,
  "adieva": 9923,
  "garten": 9924,
  "imgere": 9925,
  "mother": 9926,
  "omatic": 9927,
  "авлода": 9928,
  "гереев": 9929,
  "гласно": 9930,
  "лчанию": 9931,
  "пустим": 9932,
  "ченная": 9933,
  "ывание": 9934,
  "ывании": 9935,
  "▁1330.": 9936,
  "▁Pavlo": 9937,
  "▁Samat": 9938,
  "▁['0,5": 9939,
  "▁accur": 9940,
  "▁assum": 9941,
  "▁baked": 9942,
  "▁brace": 9943,
  "▁bulbs": 9944,
  "▁cakes": 9945,
  "▁exist": 9946,
  "▁final": 9947,
  "▁incre": 9948,
  "▁level": 9949,
  "▁purch": 9950,
  "▁shelf": 9951,
  "▁token": 9952,
  "▁Решим": 9953,
  "▁балла": 9954,
  "▁блока": 9955,
  "▁буфер": 9956,
  "▁далее": 9957,
  "▁двумя": 9958,
  "▁домаш": 9959,
  "▁дорог": 9960,
  "▁ключа": 9961,
  "▁любом": 9962,
  "▁откры": 9963,
  "▁полке": 9964,
  "▁проти": 9965,
  "▁пятом": 9966,
  "▁совпа": 9967,
  "▁стоил": 9968,
  "▁счита": 9969,
  "▁форма": 9970,
  "▁футбо": 9971,
  "▁языке": 9972,
  "duction": 9973,
  "erbread": 9974,
  "ication": 9975,
  "ulation": 9976,
  "ultiply": 9977,
  "Сколько": 9978,
  "ходятся": 9979,
  "черкнем": 9980,
  "▁'180',": 9981,
  "▁'2/9',": 9982,
  "▁Monday": 9983,
  "▁Moscow": 9984,
  "▁bullet": 9985,
  "▁equals": 9986,
  "▁farmer": 9987,
  "▁finish": 9988,
  "▁itself": 9989,
  "▁kinder": 9990,
  "▁period": 9991,
  "▁proper": 9992,
  "▁spread": 9993,
  "▁starts": 9994,
  "▁Алматы": 9995,
  "▁Динара": 9996,
  "▁Однако": 9997,
  "▁Получи": 9998,
  "▁Санжар": 9999,
  "▁Султан": 10000,
  "▁Суммар": 10001,
  "▁включа": 10002,
  "▁дефект": 10003,
  "▁избежа": 10004,
  "▁литера": 10005,
  "▁направ": 10006,
  "▁начала": 10007,
  "▁недель": 10008,
  "▁общему": 10009,
  "▁обычно": 10010,
  "▁очеред": 10011,
  "▁пешком": 10012,
  "▁порции": 10013,
  "▁равной": 10014,
  "▁разные": 10015,
  "▁случая": 10016,
  "▁состоя": 10017,
  "▁уроков": 10018,
  "▁формат": 10019,
  "▁яблоко": 10020,
  "порядочи": 10021,
  "▁'0,48',": 10022,
  "▁Davydov": 10023,
  "▁Fedorov": 10024,
  "▁Numbers": 10025,
  "▁identif": 10026,
  "▁literal": 10027,
  "▁meaning": 10028,
  "▁meeting": 10029,
  "▁quarter": 10030,
  "▁station": 10031,
  "▁teacher": 10032,
  "▁Имеется": 10033,
  "▁Павлода": 10034,
  "▁Средний": 10035,
  "▁вопроса": 10036,
  "▁задания": 10037,
  "▁знамена": 10038,
  "▁попадут": 10039,
  "▁простым": 10040,
  "▁третьем": 10041,
  "▁часовая": 10042,
  "▁четырёх": 10043,
  "лимгереев": 10044,
  "▁Pavlodar": 10045,
  "▁brothers": 10046,
  "▁cuttings": 10047,
  "▁electric": 10048,
  "▁examples": 10049,
  "▁homework": 10050,
  "▁instance": 10051,
  "▁pastries": 10052,
  "▁provided": 10053,
  "▁wrappers": 10054,
  "▁Ниетбаев": 10055,
  "▁занимает": 10056,
  "▁констант": 10057,
  "▁костяшка": 10058,
  "▁лампочек": 10059,
  "▁меньшего": 10060,
  "▁пирожных": 10061,
  "▁позициях": 10062,
  "▁получили": 10063,
  "▁понедель": 10064,
  "▁согласно": 10065,
  "▁черенков": 10066,
  "impossible": 10067,
  "▁Spandiyar": 10068,
  "▁ascending": 10069,
  "▁construct": 10070,
  "▁correctly": 10071,
  "▁repeating": 10072,
  "▁Оказалось": 10073,
  "▁выбранное": 10074,
  "▁единствен": 10075,
  "▁независим": 10076,
  "▁определим": 10077,
  "▁получения": 10078,
  "▁следующий": 10079,
  "▁требуется": 10080,
  "▁умолчанию": 10081,
  "▁четвертом": 10082,
  "▁arithmetic": 10083,
  "▁containing": 10084,
  "▁determined": 10085,
  "▁proportion": 10086,
  "▁двузначное": 10087,
  "▁наименьший": 10088,
  "▁расположен": 10089,
  "▁gingerbread": 10090,
  "▁grandmother": 10091,
  "▁встречается": 10092,
  "▁неравенство": 10093,
  "▁определения": 10094,
  "▁рукопожатие": 10095,
  "▁рукопожатий": 10096,
  "▁kindergarten": 10097,
  "▁permutations": 10098,
  "▁произведению": 10099,
  "▁шестизначных": 10100,
  "▁probabilities": 10101,
  "▁благоприятных": 10102,
  "▁использования": 10103,
  "▁первоначально": 10104,
  "▁Соответственно": 10105,
  "(3": 10106,
  "+0": 10107,
  "-(": 10108,
  ".5": 10109,
  "04": 10110,
  "17": 10111,
  "2=": 10112,
  "7)": 10113,
  "83": 10114,
  ":(": 10115,
  ";4": 10116,
  ";6": 10117,
  ";7": 10118,
  "ht": 10119,
  "mb": 10120,
  "uk": 10121,
  "xp": 10122,
  "Ал": 10123,
  "За": 10124,
  "Ма": 10125,
  "По": 10126,
  "Са": 10127,
  "тг": 10128,
  "—1": 10129,
  "▁)": 10130,
  "(2)": 10131,
  "(3)": 10132,
  "(3,": 10133,
  "(4,": 10134,
  "):7": 10135,
  ")^3": 10136,
  "*11": 10137,
  "*17": 10138,
  "*19": 10139,
  "*2.": 10140,
  "+13": 10141,
  "+19": 10142,
  "+2)": 10143,
  "+2.": 10144,
  "+3)": 10145,
  "-20": 10146,
  "-38": 10147,
  "-87": 10148,
  "/14": 10149,
  "/15": 10150,
  "/18": 10151,
  "/27": 10152,
  "/9.": 10153,
  "125": 10154,
  "200": 10155,
  "216": 10156,
  "23,": 10157,
  "726": 10158,
  ";8)": 10159,
  "=48": 10160,
  "=63": 10161,
  "=80": 10162,
  "=9.": 10163,
  "aps": 10164,
  "ava": 10165,
  "bor": 10166,
  "div": 10167,
  "ety": 10168,
  "gaz": 10169,
  "hme": 10170,
  "iet": 10171,
  "ift": 10172,
  "ior": 10173,
  "ost": 10174,
  "ove": 10175,
  "ron": 10176,
  "ses": 10177,
  "sys": 10178,
  "ums": 10179,
  "yev": 10180,
  "АНА": 10181,
  "ана": 10182,
  "бом": 10183,
  "бят": 10184,
  "гус": 10185,
  "дах": 10186,
  "ети": 10187,
  "жды": 10188,
  "ите": 10189,
  "кер": 10190,
  "лам": 10191,
  "мем": 10192,
  "мым": 10193,
  "нва": 10194,
  "нды": 10195,
  "нях": 10196,
  "опа": 10197,
  "пед": 10198,
  "риб": 10199,
  "тый": 10200,
  "уем": 10201,
  "чке": 10202,
  "эта": 10203,
  "▁0;": 10204,
  "▁5*": 10205,
  "▁NN": 10206,
  "▁_;": 10207,
  "▁dr": 10208,
  "▁io": 10209,
  ")/(1": 10210,
  "*(0.": 10211,
  "*2*3": 10212,
  "*2=2": 10213,
  "*3=3": 10214,
  "*3=6": 10215,
  "*7=4": 10216,
  "+1+2": 10217,
  "-30)": 10218,
  "/36.": 10219,
  "/4)*": 10220,
  "/6']": 10221,
  "/630": 10222,
  "000.": 10223,
  "1,12": 10224,
  "16']": 10225,
  "21',": 10226,
  "24',": 10227,
  "320.": 10228,
  "4.5-": 10229,
  "40']": 10230,
  "45']": 10231,
  "72',": 10232,
  "74',": 10233,
  "75']": 10234,
  "96',": 10235,
  ":2/3": 10236,
  ";4),": 10237,
  ";6),": 10238,
  ";7),": 10239,
  "=0.9": 10240,
  "=1/3": 10241,
  "=10,": 10242,
  "=12.": 10243,
  "=14.": 10244,
  "=180": 10245,
  "=201": 10246,
  "=240": 10247,
  "=25,": 10248,
  "=30.": 10249,
  "=53.": 10250,
  "IDEN": 10251,
  "Stat": 10252,
  "airs": 10253,
  "amze": 10254,
  "ccer": 10255,
  "ente": 10256,
  "eria": 10257,
  "hind": 10258,
  "ilow": 10259,
  "ises": 10260,
  "ixed": 10261,
  "like": 10262,
  "outh": 10263,
  "tead": 10264,
  "tova": 10265,
  "with": 10266,
  "амзе": 10267,
  "вари": 10268,
  "ведо": 10269,
  "вопо": 10270,
  "иков": 10271,
  "ифры": 10272,
  "кера": 10273,
  "крас": 10274,
  "либо": 10275,
  "нове": 10276,
  "ньше": 10277,
  "раме": 10278,
  "рата": 10279,
  "стем": 10280,
  "тере": 10281,
  "тете": 10282,
  "тном": 10283,
  "тьев": 10284,
  "урна": 10285,
  "хмет": 10286,
  "чные": 10287,
  "чных": 10288,
  "▁'1,": 10289,
  "▁'26": 10290,
  "▁'35": 10291,
  "▁'44": 10292,
  "▁'57": 10293,
  "▁'67": 10294,
  "▁(1;": 10295,
  "▁(47": 10296,
  "▁(84": 10297,
  "▁(93": 10298,
  "▁(?)": 10299,
  "▁06:": 10300,
  "▁1/8": 10301,
  "▁17-": 10302,
  "▁2*(": 10303,
  "▁246": 10304,
  "▁248": 10305,
  "▁251": 10306,
  "▁25;": 10307,
  "▁261": 10308,
  "▁266": 10309,
  "▁271": 10310,
  "▁274": 10311,
  "▁279": 10312,
  "▁28)": 10313,
  "▁3/4": 10314,
  "▁30+": 10315,
  "▁308": 10316,
  "▁317": 10317,
  "▁326": 10318,
  "▁331": 10319,
  "▁335": 10320,
  "▁33;": 10321,
  "▁34,": 10322,
  "▁343": 10323,
  "▁35)": 10324,
  "▁36;": 10325,
  "▁37,": 10326,
  "▁371": 10327,
  "▁374": 10328,
  "▁391": 10329,
  "▁397": 10330,
  "▁4*3": 10331,
  "▁4+2": 10332,
  "▁4/3": 10333,
  "▁42)": 10334,
  "▁42;": 10335,
  "▁442": 10336,
  "▁448": 10337,
  "▁44:": 10338,
  "▁451": 10339,
  "▁459": 10340,
  "▁467": 10341,
  "▁472": 10342,
  "▁484": 10343,
  "▁487": 10344,
  "▁490": 10345,
  "▁55)": 10346,
  "▁56?": 10347,
  "▁59?": 10348,
  "▁5^2": 10349,
  "▁61.": 10350,
  "▁625": 10351,
  "▁66)": 10352,
  "▁68.": 10353,
  "▁759": 10354,
  "▁79.": 10355,
  "▁7^2": 10356,
  "▁8*8": 10357,
  "▁82?": 10358,
  "▁83?": 10359,
  "▁93.": 10360,
  "▁93?": 10361,
  "▁95)": 10362,
  "▁96)": 10363,
  "▁987": 10364,
  "▁9^1": 10365,
  "▁9^2": 10366,
  "▁9^3": 10367,
  "▁9^4": 10368,
  "▁9^5": 10369,
  "▁Kam": 10370,
  "▁Res": 10371,
  "▁Yer": 10372,
  "▁asy": 10373,
  "▁aut": 10374,
  "▁blo": 10375,
  "▁cho": 10376,
  "▁die": 10377,
  "▁dug": 10378,
  "▁jum": 10379,
  "▁mph": 10380,
  "▁nil": 10381,
  "▁opp": 10382,
  "▁reg": 10383,
  "▁seg": 10384,
  "▁tul": 10385,
  "▁Дли": 10386,
  "▁Ито": 10387,
  "▁Мак": 10388,
  "▁Нам": 10389,
  "▁Она": 10390,
  "▁Отс": 10391,
  "▁гус": 10392,
  "▁куп": 10393,
  "▁нем": 10394,
  "▁сед": 10395,
  "▁слу": 10396,
  "▁чёр": 10397,
  ")=(6,": 10398,
  "*3/2=": 10399,
  "-1/3=": 10400,
  "-3):2": 10401,
  "/13',": 10402,
  "/15']": 10403,
  "0,000": 10404,
  "000',": 10405,
  "846']": 10406,
  "<2018": 10407,
  "^2019": 10408,
  "ances": 10409,
  "arden": 10410,
  "ature": 10411,
  "bayev": 10412,
  "board": 10413,
  "extra": 10414,
  "gging": 10415,
  "ident": 10416,
  "ively": 10417,
  "melon": 10418,
  "usive": 10419,
  "ution": 10420,
  "вайте": 10421,
  "говое": 10422,
  "годня": 10423,
  "матри": 10424,
  "место": 10425,
  "нными": 10426,
  "нутся": 10427,
  "стрет": 10428,
  "тенге": 10429,
  "циона": 10430,
  "шения": 10431,
  "щееся": 10432,
  "юльпа": 10433,
  "▁'0',": 10434,
  "▁'12,": 10435,
  "▁'12;": 10436,
  "▁'130": 10437,
  "▁'2']": 10438,
  "▁'201": 10439,
  "▁'3']": 10440,
  "▁(100": 10441,
  "▁(109": 10442,
  "▁(164": 10443,
  "▁(233": 10444,
  "▁(236": 10445,
  "▁(252": 10446,
  "▁(373": 10447,
  "▁(375": 10448,
  "▁(398": 10449,
  "▁(465": 10450,
  "▁0.25": 10451,
  "▁1/6.": 10452,
  "▁1/7.": 10453,
  "▁107:": 10454,
  "▁108.": 10455,
  "▁111.": 10456,
  "▁115:": 10457,
  "▁126.": 10458,
  "▁128.": 10459,
  "▁132.": 10460,
  "▁136:": 10461,
  "▁14/3": 10462,
  "▁144;": 10463,
  "▁145:": 10464,
  "▁147:": 10465,
  "▁1500": 10466,
  "▁150:": 10467,
  "▁1575": 10468,
  "▁160:": 10469,
  "▁163:": 10470,
  "▁165:": 10471,
  "▁166:": 10472,
  "▁168.": 10473,
  "▁179:": 10474,
  "▁18',": 10475,
  "▁180.": 10476,
  "▁182.": 10477,
  "▁1850": 10478,
  "▁194:": 10479,
  "▁195:": 10480,
  "▁2/3.": 10481,
  "▁2020": 10482,
  "▁3/4.": 10483,
  "▁336.": 10484,
  "▁342.": 10485,
  "▁4/21": 10486,
  "▁4/7.": 10487,
  "▁400.": 10488,
  "▁416.": 10489,
  "▁4368": 10490,
  "▁504.": 10491,
  "▁720;": 10492,
  "▁729,": 10493,
  "▁7632": 10494,
  "▁Even": 10495,
  "▁Niet": 10496,
  "▁Span": 10497,
  "▁['12": 10498,
  "▁['25": 10499,
  "▁['85": 10500,
  "▁bags": 10501,
  "▁boat": 10502,
  "▁duty": 10503,
  "▁earl": 10504,
  "▁foot": 10505,
  "▁game": 10506,
  "▁maps": 10507,
  "▁port": 10508,
  "▁rate": 10509,
  "▁rear": 10510,
  "▁seat": 10511,
  "▁sets": 10512,
  "▁tree": 10513,
  "▁wise": 10514,
  "▁Вале": 10515,
  "▁Мода": 10516,
  "▁Моск": 10517,
  "▁Таня": 10518,
  "▁Четы": 10519,
  "▁байт": 10520,
  "▁ката": 10521,
  "▁копи": 10522,
  "▁макс": 10523,
  "▁миль": 10524,
  "▁нечё": 10525,
  "▁ниже": 10526,
  "▁ника": 10527,
  "▁побе": 10528,
  "▁удов": 10529,
  "▁янва": 10530,
  "+2*2*2": 10531,
  "-87)/2": 10532,
  "/12=30": 10533,
  "/6=2/3": 10534,
  "entees": 10535,
  "icient": 10536,
  "inally": 10537,
  "ondrat": 10538,
  "printf": 10539,
  "racted": 10540,
  "ведомо": 10541,
  "висимо": 10542,
  "дается": 10543,
  "резать": 10544,
  "▁'0,64": 10545,
  "▁'0,76": 10546,
  "▁'0,99": 10547,
  "▁'13']": 10548,
  "▁'17']": 10549,
  "▁'27',": 10550,
  "▁'39']": 10551,
  "▁'40']": 10552,
  "▁'47',": 10553,
  "▁'48']": 10554,
  "▁'53',": 10555,
  "▁'54',": 10556,
  "▁'70',": 10557,
  "▁'93',": 10558,
  "▁'96']": 10559,
  "▁1/10.": 10560,
  "▁10+12": 10561,
  "▁100',": 10562,
  "▁2/13.": 10563,
  "▁32726": 10564,
  "▁4!=24": 10565,
  "▁60000": 10566,
  "▁6561,": 10567,
  "▁Arman": 10568,
  "▁Aslan": 10569,
  "▁Ayman": 10570,
  "▁White": 10571,
  "▁['0,0": 10572,
  "▁addit": 10573,
  "▁along": 10574,
  "▁avoid": 10575,
  "▁buyer": 10576,
  "▁candy": 10577,
  "▁chips": 10578,
  "▁front": 10579,
  "▁geese": 10580,
  "▁holes": 10581,
  "▁inspe": 10582,
  "▁magaz": 10583,
  "▁often": 10584,
  "▁packs": 10585,
  "▁peach": 10586,
  "▁plums": 10587,
  "▁shook": 10588,
  "▁space": 10589,
  "▁train": 10590,
  "▁twent": 10591,
  "▁walks": 10592,
  "▁worth": 10593,
  "▁Аскар": 10594,
  "▁Майры": 10595,
  "▁Макси": 10596,
  "▁Масса": 10597,
  "▁Общая": 10598,
  "▁Остав": 10599,
  "▁Самат": 10600,
  "▁выбор": 10601,
  "▁герба": 10602,
  "▁гусей": 10603,
  "▁дости": 10604,
  "▁конце": 10605,
  "▁кроме": 10606,
  "▁любую": 10607,
  "▁любых": 10608,
  "▁новый": 10609,
  "▁обрат": 10610,
  "▁околь": 10611,
  "▁описа": 10612,
  "▁отлич": 10613,
  "▁парты": 10614,
  "▁подоб": 10615,
  "▁проез": 10616,
  "▁решим": 10617,
  "▁сдать": 10618,
  "▁семье": 10619,
  "▁срезы": 10620,
  "▁стрел": 10621,
  "▁сутки": 10622,
  "▁такой": 10623,
  "▁хочет": 10624,
  "▁шабло": 10625,
  "▁шагов": 10626,
  "▁школу": 10627,
  "etition": 10628,
  "hmetova": 10629,
  "ilowatt": 10630,
  "Алгебра": 10631,
  "дополни": 10632,
  "приятие": 10633,
  "хметова": 10634,
  "▁'0,7',": 10635,
  "▁'200',": 10636,
  "▁'225',": 10637,
  "▁'5/6',": 10638,
  "▁'500',": 10639,
  "▁1-1/3=": 10640,
  "▁1/120.": 10641,
  "▁2*2=4,": 10642,
  "▁25*0.9": 10643,
  "▁25/32.": 10644,
  "▁8+8+10": 10645,
  "▁Buffer": 10646,
  "▁Valent": 10647,
  "▁['14',": 10648,
  "▁['44',": 10649,
  "▁['48',": 10650,
  "▁['49',": 10651,
  "▁['90',": 10652,
  "▁behind": 10653,
  "▁blocks": 10654,
  "▁buying": 10655,
  "▁define": 10656,
  "▁erased": 10657,
  "▁except": 10658,
  "▁fields": 10659,
  "▁folded": 10660,
  "▁garden": 10661,
  "▁groups": 10662,
  "▁longer": 10663,
  "▁market": 10664,
  "▁months": 10665,
  "▁oldest": 10666,
  "▁perfor": 10667,
  "▁placed": 10668,
  "▁satisf": 10669,
  "▁sheets": 10670,
  "▁soccer": 10671,
  "▁summer": 10672,
  "▁tables": 10673,
  "▁Кайрат": 10674,
  "▁Наташа": 10675,
  "▁Размах": 10676,
  "▁Рустем": 10677,
  "▁бревно": 10678,
  "▁буквой": 10679,
  "▁включи": 10680,
  "▁внутри": 10681,
  "▁гранях": 10682,
  "▁данном": 10683,
  "▁задаче": 10684,
  "▁заменя": 10685,
  "▁иденти": 10686,
  "▁караме": 10687,
  "▁кубика": 10688,
  "▁кубике": 10689,
  "▁листов": 10690,
  "▁моложе": 10691,
  "▁мудрец": 10692,
  "▁неделю": 10693,
  "▁отличи": 10694,
  "▁пакете": 10695,
  "▁партии": 10696,
  "▁причем": 10697,
  "▁пропор": 10698,
  "▁пустой": 10699,
  "▁равные": 10700,
  "▁раньше": 10701,
  "▁третью": 10702,
  "▁универ": 10703,
  "▁черные": 10704,
  "▁чётное": 10705,
  "▁экспор": 10706,
  "+1+1+1+1": 10707,
  "encoding": 10708,
  "imgereev": 10709,
  "готовить": 10710,
  "рованные": 10711,
  "▁'7/12',": 10712,
  "▁(1-0.4)": 10713,
  "▁1200000": 10714,
  "▁3/6=1/2": 10715,
  "▁Bolatov": 10716,
  "▁Darkhan": 10717,
  "▁Println": 10718,
  "▁Sadieva": 10719,
  "▁Sprintf": 10720,
  "▁['1/2',": 10721,
  "▁['1/7',": 10722,
  "▁['120',": 10723,
  "▁arrived": 10724,
  "▁distrib": 10725,
  "▁handles": 10726,
  "▁history": 10727,
  "▁preserv": 10728,
  "▁several": 10729,
  "▁shorter": 10730,
  "▁wrapped": 10731,
  "▁Болатов": 10732,
  "▁Канагат": 10733,
  "▁Садиева": 10734,
  "▁аналоги": 10735,
  "▁выравни": 10736,
  "▁городов": 10737,
  "▁каждому": 10738,
  "▁красным": 10739,
  "▁маркера": 10740,
  "▁получит": 10741,
  "▁разделе": 10742,
  "▁событие": 10743,
  "▁средний": 10744,
  "▁старший": 10745,
  "▁удовлет": 10746,
  "▁четверо": 10747,
  "▁четного": 10748,
  "+55+56+54": 10749,
  "+8+6+8+10": 10750,
  "▁'0,846']": 10751,
  "▁['2/11',": 10752,
  "▁['5/16',": 10753,
  "▁combined": 10754,
  "▁counting": 10755,
  "▁followed": 10756,
  "▁provides": 10757,
  "▁resident": 10758,
  "▁servings": 10759,
  "▁subjects": 10760,
  "▁Осталось": 10761,
  "▁Согласно": 10762,
  "▁Спандияр": 10763,
  "▁большего": 10764,
  "▁варианты": 10765,
  "▁выиграть": 10766,
  "▁выпавших": 10767,
  "▁выпекать": 10768,
  "▁выстрела": 10769,
  "▁добавить": 10770,
  "▁заведомо": 10771,
  "▁зависимо": 10772,
  "▁машинами": 10773,
  "▁наиболее": 10774,
  "▁необходи": 10775,
  "▁нумерова": 10776,
  "▁образуют": 10777,
  "▁окажутся": 10778,
  "▁получает": 10779,
  "▁получены": 10780,
  "▁умножить": 10781,
  "▁упаковке": 10782,
  "▁четверть": 10783,
  "невозможно": 10784,
  "уменьшится": 10785,
  "▁2*2*2*2*2": 10786,
  "▁360/12=30": 10787,
  "▁absentees": 10788,
  "▁arguments": 10789,
  "▁inclusive": 10790,
  "▁operation": 10791,
  "▁Определим": 10792,
  "▁Павлодаре": 10793,
  "▁готовится": 10794,
  "▁изменится": 10795,
  "▁множители": 10796,
  "▁обнаружил": 10797,
  "▁окольцова": 10798,
  "▁последний": 10799,
  "▁противопо": 10800,
  "▁различные": 10801,
  "▁скоростью": 10802,
  "▁следующих": 10803,
  "▁составила": 10804,
  "▁умножении": 10805,
  "▁числового": 10806,
  "▁considered": 10807,
  "▁formatting": 10808,
  "▁inspection": 10809,
  "▁multiplied": 10810,
  "▁population": 10811,
  "▁Необходимо": 10812,
  "▁Рассмотрим": 10813,
  "▁используем": 10814,
  "▁объявления": 10815,
  "▁переменную": 10816,
  "▁правильный": 10817,
  "▁промежутка": 10818,
  "▁расстояния": 10819,
  "▁Salimgereev": 10820,
  "▁expressions": 10821,
  "▁Предположим": 10822,
  "▁Салимгереев": 10823,
  "▁воскресенье": 10824,
  "▁приготовить": 10825,
  "▁пятизначные": 10826,
  "▁Максимальное": 10827,
  "▁включительно": 10828,
  "▁документацию": 10829,
  "▁комментариев": 10830,
  "▁представляет": 10831,
  "▁corresponding": 10832,
  "▁Первоначально": 10833,
  "▁заканчивается": 10834,
  "▁использование": 10835,
  "▁необходимости": 10836,
  "▁переформатирует": 10837,
  "13": 10838,
  "AB": 10839,
  "OR": 10840,
  "cm": 10841,
  "аг": 10842,
  "ея": 10843,
  "рс": 10844,
  "тт": 10845,
  "эн": 10846,
  "+9)": 10847,
  "/5)": 10848,
  "/5,": 10849,
  "4)=": 10850,
  "5.5": 10851,
  "56.": 10852,
  "96.": 10853,
  ":2.": 10854,
  "=17": 10855,
  "=81": 10856,
  "ail": 10857,
  "als": 10858,
  "azz": 10859,
  "boh": 10860,
  "ica": 10861,
  "iph": 10862,
  "ium": 10863,
  "iya": 10864,
  "kas": 10865,
  "ydr": 10866,
  "вич": 10867,
  "вёр": 10868,
  "етр": 10869,
  "зат": 10870,
  "зра": 10871,
  "лат": 10872,
  "лле": 10873,
  "луа": 10874,
  "мно": 10875,
  "нюю": 10876,
  "пли": 10877,
  "ями": 10878,
  "▁Le": 10879,
  "▁ed": 10880,
  "▁fl": 10881,
  "▁АА": 10882,
  "▁Си": 10883,
  "▁Ту": 10884,
  "▁вп": 10885,
  "▁жа": 10886,
  "▁ут": 10887,
  ")=10": 10888,
  "*3*3": 10889,
  "+002": 10890,
  "+8+9": 10891,
  "-2)!": 10892,
  "-300": 10893,
  "/10.": 10894,
  "=1/2": 10895,
  "=16,": 10896,
  "=48.": 10897,
  "Text": 10898,
  "alts": 10899,
  "anda": 10900,
  "ared": 10901,
  "atya": 10902,
  "book": 10903,
  "dred": 10904,
  "eous": 10905,
  "from": 10906,
  "head": 10907,
  "iman": 10908,
  "isha": 10909,
[...]
